<unk>	0
<s>	0
</s>	0
<pad>	0
_	-2.57379
▁	-3.22975
▁VARCHAR	-3.29297
▁table	-3.43193
,	-3.57418
name	-3.61676
)	-3.73196
=	-3.93596
▁(	-3.97034
▁the	-3.98579
▁C	-3.99598
▁S	-4.02853
BLE	-4.02912
REATE	-4.02915
▁TA	-4.02919
▁FROM	-4.06102
ELECT	-4.06114
RE	-4.10051
▁WHE	-4.10263
"	-4.27172
?	-4.28508
▁"	-4.35543
▁is	-4.68263
▁of	-4.7117
▁What	-4.77651
s	-5.01582
▁AND	-5.12058
▁a	-5.2687
(	-5.28182
▁and	-5.55895
▁was	-5.56868
▁INTEGER	-5.63036
▁for	-5.70501
▁date	-5.71066
▁than	-5.77367
▁T	-5.83116
▁with	-5.91549
▁when	-5.93739
▁has	-5.95531
team	-5.98021
▁in	-5.99299
▁score	-6.04733
▁team	-6.09385
2	-6.13629
.	-6.19736
▁Which	-6.21506
▁year	-6.26144
▁player	-6.2668
▁>	-6.27826
▁COUNT	-6.30423
1	-6.30545
▁<	-6.31046
id	-6.34822
▁number	-6.41266
▁total	-6.49485
▁what	-6.51323
▁many	-6.5485
▁points	-6.57966
▁AS	-6.58248
▁How	-6.58638
'	-6.59036
date	-6.59502
▁that	-6.59919
-	-6.6072
in	-6.61628
▁opponent	-6.61757
number	-6.63608
▁1	-6.64363
▁game	-6.64769
3	-6.68969
▁home	-6.69657
▁record	-6.69956
of	-6.7093
▁Name	-6.73793
▁position	-6.76854
1.	-6.77399
▁A	-6.78317
▁rank	-6.80922
▁result	-6.81597
▁2	-6.81842
▁Who	-6.82456
a	-6.90634
4	-6.93142
▁country	-6.93708
▁on	-6.9516
2.	-6.954
▁MIN	-6.9647
▁time	-6.96973
▁MAX	-6.97605
▁less	-6.9896
_1	-7.00437
▁had	-7.00728
▁venue	-7.00901
r	-7.05329
_2	-7.06478
▁away	-7.06803
▁location	-7.07797
/	-7.08645
year	-7.10112
▁3	-7.11756
▁round	-7.14682
▁are	-7.14775
▁average	-7.15933
5	-7.16066
en	-7.17364
▁did	-7.19682
points	-7.21877
▁0	-7.22693
score	-7.22963
▁as	-7.23409
by	-7.23575
▁have	-7.25942
▁attendance	-7.26072
VG	-7.27178
▁4	-7.29243
▁an	-7.29495
IN	-7.29652
6	-7.30473
m	-7.31855
▁played	-7.33213
7	-7.33708
no	-7.34312
d	-7.34504
▁to	-7.35456
▁week	-7.35469
▁more	-7.36965
▁t	-7.37067
▁at	-7.37966
e	-7.38392
▁SUM	-7.39563
▁who	-7.41166
code	-7.41345
;	-7.43143
attendance	-7.43316
▁school	-7.43352
▁were	-7.4358
▁season	-7.44121
title	-7.48725
8	-7.51082
t	-7.5303
▁JO	-7.54269
▁ON	-7.54759
▁5	-7.5635
▁episode	-7.56366
▁place	-7.56523
▁larger	-7.5793
o	-7.59012
▁wins	-7.59577
y	-7.59972
▁goals	-7.60014
▁city	-7.60527
rank	-7.6053
▁tournament	-7.60834
▁pick	-7.61235
st	-7.61807
▁BY	-7.61946
▁first	-7.63582
l	-7.64471
club	-7.64788
▁against	-7.64988
▁high	-7.6602
▁title	-7.66747
▁driver	-7.66898
▁by	-7.67237
▁smaller	-7.67462
▁highest	-7.67825
n	-7.6835
position	-7.68443
total	-7.69028
ed	-7.69109
▁laps	-7.69131
▁from	-7.69217
_3	-7.6931
▁district	-7.71774
▁6	-7.72809
▁college	-7.73425
▁bronze	-7.74334
_5	-7.74355
up	-7.74438
▁Wh	-7.74582
▁where	-7.7531
th	-7.75328
▁silver	-7.75509
_25	-7.75983
▁lowest	-7.77376
▁7	-7.77863
h	-7.79022
c	-7.79047
▁grid	-7.79186
for	-7.80305
to	-7.80591
▁gold	-7.80633
S	-7.80649
▁club	-7.81454
67	-7.83152
par	-7.83488
33	-7.83634
▁incumbent	-7.83911
percentage	-7.84072
70	-7.84177
km	-7.84672
b	-7.84754
w	-7.85014
65	-7.8518
_10	-7.85239
▁original	-7.85885
54	-7.86663
59	-7.86684
34	-7.8677
▁10	-7.87265
87	-7.8767
96	-7.87704
i	-7.8801
74	-7.88122
86	-7.88386
51	-7.88762
90	-7.89053
76	-7.89363
9	-7.89513
64	-7.89826
99	-7.90394
98	-7.91372
79	-7.91431
▁no	-7.91594
_23	-7.91621
T	-7.91669
95	-7.91796
56	-7.92072
66	-7.92668
97	-7.9305
92	-7.93192
69	-7.93471
_28	-7.93547
_4	-7.93652
61	-7.9366
63	-7.93849
93	-7.93912
▁there	-7.9399
81	-7.9403
_21	-7.94333
the	-7.94371
53	-7.94575
71	-7.94577
season	-7.94767
ID	-7.95074
round	-7.95091
▁type	-7.95128
89	-7.95361
▁winner	-7.95393
77	-7.95505
83	-7.95533
_12	-7.95574
_16	-7.96253
▁event	-7.96368
ing	-7.96654
57	-7.96681
▁competition	-7.9689
_24	-7.96907
▁-	-7.97033
g	-7.97124
_22	-7.97135
▁D	-7.97137
78	-7.97266
88	-7.97662
94	-7.97694
▁which	-7.98401
_15	-7.99045
_20	-7.99068
_18	-7.99195
_13	-7.99204
_19	-7.99355
▁winning	-8.0035
72	-8.00496
_29	-8.00578
_17	-8.0095
_26	-8.01371
final	-8.01677
▁years	-8.0201
▁series	-8.02349
time	-8.02423
_14	-8.02818
record	-8.02924
_27	-8.03828
against	-8.03905
▁population	-8.04051
▁games	-8.04274
▁8	-8.04354
_11	-8.04368
82	-8.0449
game	-8.04917
91	-8.05449
al	-8.05499
▁nation	-8.05814
▁all	-8.05928
▁9	-8.0648
(*)	-8.06752
er	-8.07008
0	-8.0712
▁class	-8.07912
_7	-8.08956
▁race	-8.09183
73	-8.09425
country	-8.1043
goals	-8.10674
k	-8.11551
▁11	-8.11873
▁greater	-8.11981
f	-8.12046
▁area	-8.13723
▁Score	-8.14052
▁Date	-8.14253
▁nationality	-8.14851
player	-8.14975
type	-8.1622
▁won	-8.16698
result	-8.16928
▁18	-8.17019
us	-8.1727
▁party	-8.18815
▁lost	-8.19413
▁12	-8.19678
_6	-8.1984
▁state	-8.19992
▁production	-8.20045
opponent	-8.20427
home	-8.2089
location	-8.21291
_8	-8.21308
p	-8.2142
:	-8.21713
▁league	-8.21902
retired	-8.21989
_9	-8.22975
laps	-8.23126
▁directed	-8.23309
3.	-8.24035
on	-8.24406
A	-8.24544
week	-8.25317
_31	-8.25498
10	-8.257
or	-8.26242
▁play	-8.26865
▁W	-8.26882
_43	-8.27054
▁In	-8.27487
UP	-8.27744
▁me	-8.27956
_58	-8.28369
_32	-8.2841
_40	-8.28525
▁GRO	-8.28718
▁surface	-8.28975
▁d	-8.29922
▁15	-8.31211
▁engine	-8.31364
_35	-8.31737
▁14	-8.32053
_42	-8.32223
first	-8.32368
se	-8.33292
_47	-8.33397
_60	-8.33784
Id	-8.34331
D	-8.3439
_84	-8.34592
air	-8.34664
_49	-8.34673
_48	-8.34836
_41	-8.34882
_68	-8.35047
▁runner	-8.35258
▁value	-8.35516
▁Team	-8.35649
▁ORDER	-8.35712
▁13	-8.35729
▁chassis	-8.36054
▁most	-8.36527
▁stadium	-8.3684
elected	-8.36864
pick	-8.36891
▁top	-8.37087
wins	-8.37242
▁B	-8.37297
_30	-8.37466
▁overall	-8.37523
▁2008	-8.37614
▁written	-8.38172
_45	-8.38318
▁2010	-8.38501
_38	-8.3892
_55	-8.38964
_50	-8.39176
▁losses	-8.39186
_52	-8.39567
▁M	-8.40123
C	-8.40129
▁2011	-8.40185
▁m	-8.40235
_44	-8.40277
_62	-8.40444
millions	-8.40456
_75	-8.40989
▁P	-8.41387
▁visitor	-8.41454
▁16	-8.41597
_46	-8.41691
_36	-8.41932
viewers	-8.42168
▁final	-8.42412
_37	-8.42418
▁match	-8.42467
series	-8.4309
per	-8.43419
_39	-8.43936
_85	-8.44061
▁model	-8.44659
▁F	-8.44811
_80	-8.45401
an	-8.45619
▁loss	-8.47362
▁county	-8.48095
venue	-8.48362
at	-8.50791
▁frequency	-8.51048
▁H	-8.51299
driver	-8.52072
▁Player	-8.52773
▁region	-8.52861
away	-8.53184
▁height	-8.53199
▁us	-8.53341
▁sum	-8.53432
cup	-8.53574
does	-8.53609
▁Find	-8.53703
▁2009	-8.54176
▁film	-8.54523
▁20	-8.5456
▁c	-8.54988
▁last	-8.55487
nd	-8.55775
place	-8.55865
▁L	-8.55943
▁category	-8.56887
city	-8.57352
▁17	-8.57696
▁"1	-8.57957
▁director	-8.58042
▁circuit	-8.58118
crowd	-8.58196
▁w	-8.58836
▁names	-8.58956
▁code	-8.59135
▁finish	-8.59231
▁Show	-8.5938
classification	-8.59636
▁being	-8.60509
–	-8.60892
▁viewers	-8.61012
▁l	-8.61159
j	-8.61369
▁artist	-8.62017
R	-8.62343
Name	-8.62461
▁medals	-8.62596
▁opponents	-8.62891
▁List	-8.63068
▁Year	-8.63179
v	-8.63311
▁how	-8.63992
won	-8.64175
high	-8.64694
gold	-8.64927
population	-8.65003
le	-8.65551
▁draws	-8.6572
▁2007	-8.65916
▁people	-8.66175
▁p	-8.66353
and	-8.67356
▁status	-8.67675
▁G	-8.67786
es	-8.67855
▁19	-8.68242
▁format	-8.69261
▁f	-8.69286
▁outcome	-8.70403
▁2012	-8.70894
▁drawn	-8.71047
▁'	-8.71079
u	-8.71573
▁after	-8.71655
winner	-8.72298
assists	-8.74317
▁b	-8.74955
class	-8.74978
▁LIMIT	-8.75004
▁order	-8.75043
x	-8.75057
rebounds	-8.75316
▁2006	-8.7617
▁E	-8.76537
tournament	-8.76684
▁K	-8.76684
▁tie	-8.76828
played	-8.77638
bronze	-8.77722
▁tries	-8.78262
F	-8.78354
re	-8.78483
▁Where	-8.78988
▁24	-8.79013
ir	-8.79358
league	-8.79477
as	-8.79749
customer	-8.79832
▁1?	-8.80665
11	-8.80991
▁amount	-8.81016
▁Points	-8.81598
grid	-8.81638
▁catalog	-8.81793
site	-8.81956
▁entrant	-8.82394
▁DESC	-8.82427
▁Total	-8.82635
▁#	-8.82733
2?	-8.82799
▁release	-8.83441
area	-8.83453
B	-8.83794
▁22	-8.84522
▁before	-8.8475
▁par	-8.85027
▁25	-8.85089
▁lane	-8.85097
z	-8.85332
▁rider	-8.85754
▁On	-8.85859
▁Tell	-8.86428
▁constructor	-8.8714
▁label	-8.87181
▁partner	-8.87204
▁listed	-8.87306
▁V	-8.88095
▁I	-8.88096
▁or	-8.88503
age	-8.88661
▁notes	-8.8871
▁Rank	-8.89278
▁de	-8.89341
silver	-8.89914
▁h	-8.90049
▁Opponent	-8.90537
▁R	-8.90882
▁23	-8.914
▁least	-8.91595
▁"19	-8.91833
winning	-8.92312
▁candidates	-8.92322
▁award	-8.92441
school	-8.92701
▁song	-8.93381
▁Record	-8.93618
party	-8.93654
▁"3	-8.93776
&	-8.93921
L	-8.93944
▁method	-8.94238
▁percentage	-8.94284
▁21	-8.94541
▁stage	-8.94715
▁station	-8.95317
▁set	-8.95677
▁"2	-8.96067
▁over	-8.96409
original	-8.9641
E	-8.96852
junior	-8.97115
M	-8.97172
SE	-8.97332
▁customer	-8.97441
▁For	-8.9772
man	-8.97875
▁under	-8.97896
top	-8.98061
24	-8.98487
3?	-8.9975
G	-9.00439
state	-9.00716
lost	-9.00718
▁WH	-9.01264
▁To	-9.01639
▁air	-9.01722
▁Result	-9.01724
▁matches	-9.02099
▁margin	-9.02232
▁part	-9.023
19	-9.02596
▁Position	-9.03059
▁win	-9.03504
district	-9.03802
de	-9.04028
▁states	-9.04088
▁championship	-9.04278
▁start	-9.04327
ton	-9.04376
▁car	-9.05722
el	-9.05943
▁they	-9.06039
▁30	-9.06519
CT	-9.06645
▁OFF	-9.06916
▁park	-9.07134
ch	-9.07515
▁goal	-9.07584
▁Time	-9.07611
▁length	-9.07681
is	-9.08231
P	-9.08277
▁pole	-9.08429
▁v	-9.09101
AT	-9.09298
▁O	-9.09507
▁english	-9.0974
6?	-9.10072
▁grand	-9.1023
▁cup	-9.10353
▁g	-9.10754
▁age	-9.11034
made	-9.11286
average	-9.11312
ly	-9.11358
N	-9.11756
▁Round	-9.11959
8"	-9.12272
ta	-9.12284
▁election	-9.12384
16	-9.12491
%	-9.12744
IST	-9.12996
▁United	-9.13238
▁scored	-9.13639
▁2005	-9.13868
▁fewe	-9.13908
▁call	-9.14254
overall	-9.14264
▁hometown	-9.14394
▁1,	-9.14564
▁athlete	-9.14577
▁manufacturer	-9.14645
▁division	-9.14686
ne	-9.1513
rd	-9.15272
▁draw	-9.15598
ft	-9.15887
▁crowd	-9.15933
▁fastest	-9.16118
▁melbourne	-9.16359
▁language	-9.16732
▁oval	-9.16885
ri	-9.17041
▁5?	-9.17233
games	-9.1729
▁N	-9.17335
▁best	-9.17828
▁member	-9.17915
▁weight	-9.18123
lap	-9.18141
from	-9.18359
▁The	-9.18815
▁company	-9.1884
▁27	-9.19022
0?	-9.19072
▁Game	-9.19118
▁institution	-9.19141
▁2004	-9.19145
▁Country	-9.19179
ia	-9.19292
14	-9.19347
▁28	-9.19505
ers	-9.19745
rate	-9.1994
▁million	-9.20092
▁money	-9.20158
W	-9.20443
la	-9.2049
son	-9.20494
▁rating	-9.20676
▁26	-9.2086
▁"4	-9.20881
▁new	-9.21399
▁open	-9.21964
▁product	-9.22123
O	-9.22128
▁student	-9.23368
mhz	-9.23421
▁ship	-9.23466
▁"6	-9.23476
▁province	-9.23581
▁elected	-9.23766
▁k	-9.23823
▁events	-9.23831
▁2002	-9.23856
20	-9.23857
15	-9.24201
27	-9.24485
▁2000	-9.24528
12	-9.24717
nationality	-9.24827
▁not	-9.24831
▁each	-9.25066
K	-9.25443
▁THE	-9.25546
▁Home	-9.25639
5?	-9.26229
▁If	-9.26245
sign	-9.26951
▁course	-9.27629
ion	-9.27806
episode	-9.28135
college	-9.28226
▁e	-9.28231
ha	-9.28555
te	-9.28824
▁maximum	-9.28982
▁2003	-9.29199
H	-9.29253
na	-9.29287
april	-9.29371
kg	-9.29571
▁enrollment	-9.29997
▁founded	-9.30209
▁transfer	-9.30404
million	-9.30483
9?	-9.30626
▁29	-9.30978
region	-9.31144
united	-9.31153
▁third	-9.31174
17	-9.31329
▁races	-9.31336
model	-9.31787
▁assists	-9.31864
win	-9.31909
▁U	-9.31946
last	-9.31964
44	-9.31974
▁customers	-9.32067
2"	-9.32088
▁smalle	-9.32177
▁rebounds	-9.32305
13	-9.32416
▁Venue	-9.32812
▁"5	-9.32841
artist	-9.33039
▁City	-9.33355
new	-9.33395
▁day	-9.33428
▁nickname	-9.33577
▁airport	-9.33871
▁n	-9.33911
▁track	-9.33998
39	-9.34046
▁per	-9.34177
▁made	-9.34232
▁November	-9.34317
▁Attendance	-9.34399
office	-9.34521
▁decision	-9.34885
ka	-9.3514
status	-9.35408
co	-9.35523
▁one	-9.35862
▁capacity	-9.36596
▁times	-9.36626
years	-9.36753
5"	-9.36776
uring	-9.37167
▁71	-9.37193
ur	-9.37213
address	-9.37238
▁second	-9.37269
losses	-9.37284
▁States	-9.37458
▁70	-9.3754
▁Week	-9.37723
ra	-9.37827
▁held	-9.37837
▁you	-9.37881
▁Gold	-9.38176
ma	-9.38252
8?	-9.38254
▁rounds	-9.38361
▁department	-9.38369
south	-9.38389
▁largest	-9.38487
▁$	-9.38505
capacity	-9.38533
▁theme	-9.38596
▁segment	-9.38599
apps	-9.38636
▁Tournament	-9.38753
▁group	-9.39172
▁October	-9.3919
birth	-9.39204
order	-9.39298
▁run	-9.39725
80	-9.40406
license	-9.40452
yes	-9.40466
▁manager	-9.40748
ie	-9.41003
▁votes	-9.41008
1?	-9.41035
service	-9.41117
▁st	-9.41135
station	-9.41208
ot	-9.41357
▁network	-9.41517
ic	-9.4208
▁building	-9.42103
▁qual	-9.42138
▁distance	-9.42278
▁J	-9.42369
▁power	-9.42387
mm	-9.42441
manager	-9.42442
▁December	-9.42459
▁built	-9.43014
8_1	-9.43042
08	-9.43652
▁if	-9.43675
height	-9.43789
▁he	-9.43942
et	-9.44047
1"	-9.44349
▁r	-9.44446
loss	-9.44465
votes	-9.44649
ING	-9.44668
▁may	-9.44768
▁players	-9.44845
▁united	-9.45091
field	-9.45141
▁31	-9.45293
▁2001	-9.45321
V	-9.45369
▁november	-9.45711
35	-9.45717
bonus	-9.46506
▁68	-9.46804
▁co	-9.46872
un	-9.47013
product	-9.47196
november	-9.47204
J	-9.47324
22	-9.47601
▁2013	-9.47752
▁fa	-9.47777
▁associated	-9.47793
3"	-9.47821
▁earlie	-9.47839
4.	-9.47855
finish	-9.47908
▁re	-9.48175
▁April	-9.48266
▁mascot	-9.48308
▁current	-9.48312
▁october	-9.48329
am	-9.48399
▁Place	-9.48538
october	-9.48608
09	-9.48756
uch	-9.48976
▁IS	-9.49048
victory	-9.4931
▁role	-9.49343
mi	-9.49973
division	-9.50025
▁march	-9.50117
75	-9.50369
▁located	-9.50523
q	-9.50855
▁32	-9.50902
18	-9.51097
▁avg	-9.51407
▁College	-9.5149
05	-9.51497
▁teams	-9.51565
race	-9.51792
▁sport	-9.52032
▁do	-9.52452
48	-9.52546
00	-9.52664
▁actor	-9.52697
▁genre	-9.52944
all	-9.53212
▁New	-9.53567
▁results	-9.53603
▁38	-9.53652
29	-9.5367
▁january	-9.53807
leg	-9.53908
▁episodes	-9.54011
ko	-9.54512
▁show	-9.54727
04	-9.54856
tell	-9.55098
town	-9.55136
▁No	-9.55315
▁students	-9.55353
28	-9.55431
▁different	-9.55564
07	-9.55684
competition	-9.56073
▁Away	-9.56261
I	-9.56454
song	-9.56543
60	-9.56976
▁leading	-9.57014
start	-9.57024
▁"10	-9.57038
40	-9.57051
december	-9.57467
may	-9.577
▁share	-9.58008
surface	-9.5825
▁2008"	-9.58646
▁May	-9.58754
ter	-9.59088
▁cuts	-9.59093
43	-9.59096
▁Cup	-9.59565
land	-9.59579
ol	-9.59614
singles	-9.59839
candidates	-9.59888
▁long	-9.60013
▁Student	-9.60039
▁tv	-9.602
▁host	-9.60327
▁Can	-9.6043
constructor	-9.60616
Code	-9.60631
doubles	-9.60662
01	-9.60793
▁television	-9.6085
▁conference	-9.6085
▁Location	-9.60982
30	-9.61486
9"	-9.61556
event	-9.61566
▁world	-9.61809
end	-9.61872
▁size	-9.61874
▁/	-9.62016
ve	-9.62041
release	-9.62151
me	-9.62169
difference	-9.6221
]	-9.62243
▁album	-9.6225
▁Bronze	-9.62258
▁person	-9.62345
▁1994	-9.62352
mph	-9.62399
▁1996	-9.62537
▁69	-9.62698
airdate	-9.62705
▁+	-9.62711
▁document	-9.63021
county	-9.63062
runner	-9.6317
▁owner	-9.63203
cc	-9.6322
▁higher	-9.6327
▁products	-9.63288
ca	-9.63468
25	-9.63678
32	-9.63773
au	-9.63801
▁Pick	-9.63835
ro	-9.63897
▁writer	-9.63997
2_1	-9.64325
▁nominated	-9.64416
ley	-9.64425
50	-9.64483
▁april	-9.64562
Y	-9.64633
▁HAV	-9.64703
▁School	-9.64833
▁visiting	-9.651
▁State	-9.65109
▁8?	-9.65179
▁100	-9.65398
▁minimum	-9.65421
▁2,	-9.65756
▁pos	-9.66037
▁"18	-9.6622
▁Silver	-9.66227
▁dates	-9.66238
directed	-9.66352
ul	-9.6678
▁attended	-9.67055
▁december	-9.6729
▁character	-9.67339
4"	-9.67653
num	-9.67834
▁34	-9.6795
frequency	-9.68053
▁–	-9.68099
▁outgoing	-9.68135
▁employees	-9.68209
sa	-9.6823
6"	-9.68467
▁coach	-9.68644
▁mens	-9.68709
▁august	-9.68766
built	-9.6891
money	-9.68916
production	-9.68929
▁champion	-9.69038
▁%	-9.69098
▁channel	-9.69263
▁other	-9.69296
draws	-9.69347
▁"7	-9.69465
▁Club	-9.69615
▁february	-9.6962
▁report	-9.69676
▁Park	-9.69709
fa	-9.69771
weight	-9.69772
▁named	-9.69793
▁runs	-9.69927
-10	-9.69998
▁interview	-9.70041
▁south	-9.70074
▁High	-9.70195
ns	-9.70478
▁end	-9.70513
▁word	-9.70607
▁February	-9.70642
director	-9.7066
ni	-9.70745
han	-9.71134
▁latitude	-9.71212
it	-9.71217
▁40	-9.71309
▁Goals	-9.71381
ja	-9.71439
engine	-9.71531
▁35	-9.71539
▁1999	-9.71598
▁1998	-9.71599
car	-9.71613
__$_	-9.71645
▁nhl	-9.7167
di	-9.71785
02	-9.72288
income	-9.72429
one	-9.72622
other	-9.72633
06	-9.72662
▁3,	-9.72804
ru	-9.72979
▁j	-9.72998
ba	-9.73012
hi	-9.73071
outcome	-9.7334
–2	-9.73441
49	-9.73521
▁university	-9.73536
▁longitude	-9.73729
▁replaced	-9.738
drawn	-9.73991
▁72	-9.74024
36	-9.74154
match	-9.74187
price	-9.74245
ad	-9.74343
day	-9.74344
ti	-9.74616
▁general	-9.7464
lane	-9.74654
il	-9.74721
45	-9.74836
▁4,	-9.74841
description	-9.75153
founded	-9.75166
▁roll	-9.75325
billion	-9.75376
ship	-9.75514
west	-9.75608
▁birth	-9.75612
▁March	-9.75865
▁South	-9.75871
kw	-9.75888
▁1997	-9.76023
change	-9.76059
march	-9.76107
▁heat	-9.76173
7"	-9.76265
▁captain	-9.76373
▁1990	-9.76571
staff	-9.76659
-5	-9.76672
▁quantity	-9.76699
speed	-9.77018
september	-9.77018
▁yards	-9.77158
▁John	-9.77167
▁u	-9.7731
47	-9.77329
▁builder	-9.77332
▁field	-9.77338
▁Melbourne	-9.77349
june	-9.77401
5_1	-9.77439
▁50	-9.77555
sh	-9.77578
aug	-9.77911
province	-9.77967
rider	-9.77983
-2	-9.78012
▁every	-9.78259
sqmi	-9.78261
▁evening	-9.78264
▁i	-9.78307
▁difference	-9.78316
▁june	-9.78588
▁september	-9.78594
▁Re	-9.78624
ent	-9.78654
da	-9.78782
▁44	-9.78876
▁byes	-9.78935
▁candidate	-9.79023
°	-9.79217
38	-9.79368
lu	-9.79645
▁moving	-9.79728
▁july	-9.79817
english	-9.79882
ticket	-9.80144
▁classification	-9.80181
▁main	-9.80353
mo	-9.8038
▁floors	-9.80912
ce	-9.81075
-1	-9.81317
▁used	-9.81368
san	-9.81523
▁took	-9.81661
▁born	-9.81677
nomination	-9.81706
ny	-9.81881
▁max	-9.82302
▁speed	-9.82324
ar	-9.82341
37	-9.82388
▁poles	-9.82438
.0	-9.8253
used	-9.82611
%"	-9.82612
february	-9.82818
stadium	-9.82827
▁42	-9.82865
▁swimsuit	-9.83017
opponents	-9.83215
▁De	-9.83242
▁Wins	-9.83258
▁town	-9.8335
▁gender	-9.83372
▁res	-9.8339
▁US	-9.8347
▁June	-9.83671
▁decile	-9.83767
enrollment	-9.83821
course	-9.83823
written	-9.83826
uk	-9.84024
▁lap	-9.84111
▁site	-9.84182
▁Open	-9.84202
est	-9.84582
▁January	-9.84616
▁price	-9.84622
23	-9.84674
▁"12	-9.8477
source	-9.84777
▁shows	-9.84792
▁North	-9.84795
▁"20	-9.84799
density	-9.84832
icao	-9.84884
details	-9.84911
▁September	-9.84991
▁try	-9.85096
os	-9.85119
▁73	-9.8512
46	-9.85204
▁womens	-9.85236
_2__	-9.85441
ak	-9.85684
▁Mo	-9.86295
▁it	-9.86571
▁regular	-9.86671
▁density	-9.86878
▁Season	-9.87021
pos	-9.87037
▁racing	-9.87142
▁aired	-9.87152
im	-9.87176
ine	-9.87217
▁ranking	-9.87559
captain	-9.8792
matches	-9.87947
▁lead	-9.88026
85	-9.88154
52	-9.8821
▁10,	-9.88215
der	-9.88287
be	-9.88451
000	-9.88581
▁Stadium	-9.88845
gown	-9.88954
incumbent	-9.88983
host	-9.89014
▁opposing	-9.89117
▁head	-9.89172
▁peak	-9.8934
▁Number	-9.89536
north	-9.8954
▁"15	-9.89546
U	-9.89645
▁"1"	-9.89685
play	-9.89757
▁33	-9.89799
ham	-9.89921
▁extra	-9.90026
▁staff	-9.90173
▁Nationality	-9.90226
▁numbers	-9.90619
▁left	-9.90808
▁"11	-9.90811
li	-9.90838
▁67	-9.90843
▁york	-9.90884
▁ranked	-9.909
▁winners	-9.91054
58	-9.9107
municipality	-9.91105
▁ground	-9.91224
▁YEAR	-9.91302
▁"9	-9.91339
68	-9.91341
▁authority	-9.91675
▁August	-9.91859
9_1	-9.91859
▁University	-9.91902
▁wrote	-9.91938
▁Grid	-9.91939
ITH	-9.9194
▁Oval	-9.91944
▁be	-9.91947
26	-9.91989
▁prix	-9.91999
ment	-9.92034
▁playoffs	-9.92097
power	-9.92165
▁podiums	-9.9229
▁performer	-9.92333
▁service	-9.92534
▁market	-9.92542
saa	-9.9256
ranking	-9.92603
-4	-9.92738
▁road	-9.92872
sc	-9.92893
do	-9.92953
▁broadcast	-9.92989
▁Competition	-9.93015
appointment	-9.93272
length	-9.93292
ron	-9.93301
▁49	-9.93353
stuid	-9.93517
tv	-9.93888
ge	-9.93899
▁11,	-9.9393
▁Against	-9.94055
▁source	-9.94101
▁salary	-9.94194
▁losing	-9.94247
▁yes	-9.94388
john	-9.9439
member	-9.94407
january	-9.94411
▁capital	-9.9447
▁street	-9.94517
▁sign	-9.94741
fee	-9.94862
▁arena	-9.9506
▁official	-9.95093
▁list	-9.95336
group	-9.95536
▁touchdowns	-9.95895
▁constituency	-9.95911
▁8,	-9.95989
scorer	-9.96085
▁having	-9.96218
Grand	-9.96418
▁any	-9.96467
report	-9.96607
▁36	-9.96724
▁League	-9.97097
▁Class	-9.97314
▁6–4	-9.9735
▁"8	-9.97373
▁medal	-9.97478
ana	-9.9754
scored	-9.97682
capita	-9.97717
▁July	-9.97937
ry	-9.98266
▁prize	-9.98281
channel	-9.98288
les	-9.98505
__2011_	-9.98864
03	-9.98879
ke	-9.98921
ian	-9.98999
share	-9.99016
size	-9.99078
▁period	-9.99171
lo	-9.99258
pe	-9.99344
ation	-9.9958
vacancy	-10.0012
Type	-10.0013
▁callsign	-10.0044
nation	-10.0046
ai	-10.0049
ive	-10.0053
▁cfl	-10.0054
▁released	-10.0061
6_2	-10.0062
gp	-10.0063
▁OF	-10.0071
pa	-10.0074
ep	-10.0075
▁term	-10.0082
▁iata	-10.0084
▁duration	-10.0102
▁international	-10.0117
▁37	-10.0121
world	-10.0135
visitor	-10.0136
▁seats	-10.014
▁issue	-10.0143
▁north	-10.0166
▁drivers	-10.0182
ceremony	-10.0184
а	-10.0184
▁performance	-10.0203
ho	-10.0206
ford	-10.0219
fl	-10.0221
84	-10.0235
panel	-10.0249
dept	-10.0252
election	-10.0253
joined	-10.0254
▁"13	-10.0255
network	-10.0256
▁description	-10.028
▁5,	-10.0287
▁caps	-10.0292
▁land	-10.0309
▁Laps	-10.0348
▁ma	-10.0349
▁author	-10.0386
6_1	-10.0429
▁46	-10.0445
▁latest	-10.0449
▁representative	-10.0474
▁apps	-10.0481
▁countries	-10.0493
margin	-10.0501
ies	-10.0502
head	-10.0504
seats	-10.0514
4_1	-10.0538
▁Event	-10.054
▁"14	-10.0546
bo	-10.0553
ang	-10.0581
▁change	-10.0586
▁studio	-10.0598
ends	-10.0603
avg	-10.0603
▁14,	-10.0605
io	-10.0615
▁branding	-10.0615
▁6,	-10.0616
▁rate	-10.0617
▁La	-10.062
label	-10.0627
notes	-10.0627
▁Title	-10.0638
za	-10.0638
nickname	-10.0662
ger	-10.0675
▁bigge	-10.0681
format	-10.0755
list	-10.0762
▁1995	-10.0774
▁train	-10.0784
ich	-10.0798
ker	-10.0798
student	-10.0812
▁bike	-10.083
▁o	-10.0841
-7	-10.0852
vi	-10.0858
ts	-10.0869
▁County	-10.0878
conference	-10.0881
value	-10.0881
mar	-10.0884
_100	-10.0885
▁leg	-10.0894
▁vote	-10.0898
▁Top	-10.09
▁count	-10.0904
SECT	-10.0906
▁1991	-10.0917
▁origin	-10.0932
▁office	-10.0932
ki	-10.0936
ville	-10.0945
ya	-10.0954
▁52	-10.0955
▁color	-10.096
41	-10.0961
▁mountain	-10.0967
ary	-10.0976
part	-10.0995
0_1	-10.1001
company	-10.1004
gi	-10.101
1_2	-10.1015
▁Bo	-10.1016
▁bonus	-10.1018
▁1992	-10.1026
▁titles	-10.1027
▁belong	-10.1028
ist	-10.1028
▁1993	-10.1029
▁9,	-10.1035
▁la	-10.1064
__2010_	-10.1077
▁vehicle	-10.108
21	-10.1092
▁"2"	-10.1106
▁jockey	-10.1108
▁version	-10.111
▁mark	-10.1114
departure	-10.1139
august	-10.1142
actor	-10.1145
▁With	-10.1154
▁bo	-10.1168
▁nominee	-10.1171
▁seasons	-10.1175
▁mountains	-10.1192
cha	-10.1194
draw	-10.1205
▁Party	-10.1215
▁66	-10.1218
rating	-10.1222
long	-10.1226
▁center	-10.1226
▁unit	-10.1236
▁victory	-10.1252
0"	-10.1254
prix	-10.1276
best	-10.1282
▁74	-10.1287
count	-10.1292
▁ends	-10.1295
▁1983	-10.1299
▁Winning	-10.13
▁erp	-10.1305
▁previous	-10.1309
tor	-10.1323
▁7,	-10.1329
▁16,	-10.1338
▁others	-10.1339
▁phone	-10.1345
ga	-10.1347
want	-10.1356
▁contestant	-10.1379
▁di	-10.1408
broadcast	-10.1408
▁York	-10.1412
go	-10.1412
hard	-10.1414
ou	-10.142
off	-10.1421
poles	-10.1451
down	-10.1455
▁address	-10.1476
cm	-10.1506
-3	-10.152
▁sa	-10.1521
▁launch	-10.1522
▁Surface	-10.1543
coach	-10.1547
lin	-10.1552
bi	-10.1572
ty	-10.1582
tie	-10.16
▁45	-10.1606
jo	-10.1611
com	-10.1623
art	-10.1631
▁gain	-10.1635
he	-10.1663
▁point	-10.1673
▁INTER	-10.1677
▁Documents	-10.1678
▁1984	-10.1681
category	-10.1687
▁FA	-10.169
3_2	-10.1701
award	-10.1702
pi	-10.1724
▁poll	-10.1732
▁TV	-10.1741
▁47	-10.1761
▁primary	-10.1769
▁draft	-10.1784
▁municipality	-10.1785
window	-10.1822
▁championships	-10.1833
pts	-10.1843
▁English	-10.1877
▁41	-10.1879
▁1987	-10.1885
ci	-10.189
▁west	-10.189
gu	-10.1926
▁Nation	-10.1947
▁his	-10.1954
▁"0"	-10.1959
house	-10.1968
document	-10.197
ina	-10.1975
tries	-10.1999
▁ba	-10.2013
500	-10.2044
▁settlement	-10.2059
fensive	-10.2088
▁skip	-10.211
Country	-10.2115
method	-10.2115
John	-10.2117
amount	-10.212
ill	-10.2123
▁@	-10.2126
▁Lost	-10.2127
▁"25	-10.2131
▁days	-10.2133
▁2009"	-10.2135
ier	-10.2164
▁24,	-10.2187
▁gross	-10.2199
$_	-10.2201
▁national	-10.2217
▁Set	-10.2219
▁get	-10.2234
▁recorded	-10.2245
conceded	-10.2259
att	-10.2262
ity	-10.2262
▁cyrillic	-10.2279
usd	-10.228
ver	-10.2303
ag	-10.2349
▁NOT	-10.2374
▁Tie	-10.2377
▁Racing	-10.2393
su	-10.2402
▁Par	-10.2409
we	-10.2411
▁reg	-10.2412
▁plays	-10.2418
stage	-10.2431
▁guest	-10.2436
▁Car	-10.2439
▁Winner	-10.244
res	-10.2444
:00	-10.2445
▁0,	-10.2469
-6	-10.2481
▁39	-10.2484
68_1	-10.2485
cd	-10.2489
ku	-10.2492
14_1	-10.251
ee	-10.2513
Retired	-10.2517
▁Customers	-10.2534
ac	-10.2534
issue	-10.2555
july	-10.2563
born	-10.2564
film	-10.2566
▁lower	-10.2567
▁12,	-10.2577
▁john	-10.2615
▁55	-10.2618
lb	-10.2621
▁manner	-10.2635
article	-10.2641
heat	-10.2649
que	-10.2651
▁distinct	-10.2664
▁Played	-10.2666
▁1985	-10.2667
um	-10.2679
▁gdp	-10.2681
▁reason	-10.2683
tom	-10.2685
▁1989	-10.2687
▁appearances	-10.2694
_2012	-10.2696
▁music	-10.2698
▁couple	-10.2701
range	-10.2709
version	-10.2712
partner	-10.2714
emp	-10.2722
▁picked	-10.2731
▁family	-10.2738
▁affiliation	-10.276
int	-10.2785
ell	-10.2792
▁80	-10.2801
65_1	-10.2811
ran	-10.2813
originally	-10.2817
om	-10.2825
▁finished	-10.2838
out	-10.2851
▁op	-10.2852
4_2	-10.2862
▁75	-10.2875
pass	-10.2886
em	-10.2894
era	-10.2902
▁48	-10.2912
later	-10.2923
▁median	-10.2924
▁entry	-10.2945
▁edition	-10.2947
br	-10.296
track	-10.296
op	-10.2963
wood	-10.2963
▁Prix	-10.2965
▁6–3	-10.2965
championship	-10.2965
cache	-10.2966
▁1980	-10.2969
▁4–6	-10.2978
▁got	-10.2994
lan	-10.3011
▁21,	-10.3018
▁54	-10.3028
sponsor	-10.3029
market	-10.3032
chassis	-10.3032
▁"0	-10.3035
▁catalogue	-10.3038
fat	-10.3042
set	-10.3054
cast	-10.3057
▁OR	-10.3066
▁25,	-10.3073
ney	-10.3085
50_1	-10.3089
▁ERP	-10.3119
rr	-10.3119
point	-10.3126
ite	-10.3147
▁22,	-10.3151
▁airdate	-10.3181
with	-10.3195
▁ch	-10.3234
–4	-10.3237
▁runners	-10.3238
line	-10.3248
▁"+	-10.3264
▁democratic	-10.3274
▁Outcome	-10.3275
▁$__	-10.3302
▁ih	-10.3312
▁debut	-10.3315
▁Games	-10.3325
▁go	-10.3346
▁pilot	-10.335
peak	-10.3354
▁man	-10.3354
▁church	-10.3363
▁successor	-10.3372
▁km	-10.339
▁both	-10.3394
23_1	-10.3399
9_2	-10.3406
▁net	-10.3426
▁entered	-10.3429
о	-10.3433
▁drafted	-10.3439
ten	-10.344
cy	-10.3461
▁horse	-10.3462
able	-10.3484
▁employee	-10.3484
▁23,	-10.3492
▁chinese	-10.3501
ave	-10.3501
arry	-10.3504
▁Australia	-10.3505
▁semi	-10.3509
▁tournaments	-10.3512
wa	-10.3513
▁19,	-10.3514
commentator	-10.3519
cust	-10.3521
7_2	-10.3522
department	-10.3524
guest	-10.3524
circuit	-10.3524
▁book	-10.3536
ner	-10.3539
▁San	-10.3549
▁2"	-10.355
▁2007"	-10.3554
12_1	-10.3568
ay	-10.3569
nm	-10.358
▁starts	-10.3587
seasons	-10.3588
▁eliminated	-10.3589
▁Overall	-10.3595
carlton	-10.3595
▁Model	-10.3603
▁hill	-10.3612
ju	-10.3621
▁1986	-10.3634
▁District	-10.3638
▁project	-10.3641
▁young	-10.3662
▁200	-10.3664
▁x	-10.3671
▁Type	-10.3672
hen	-10.3683
si	-10.3688
√	-10.369
▁se	-10.3727
ler	-10.3731
▁ids	-10.3741
▁percent	-10.3754
▁76	-10.3757
▁hcards	-10.3759
▁Ref	-10.3764
▁values	-10.3769
byes	-10.3773
▁"@	-10.3774
berg	-10.3781
fe	-10.3784
▁scorer	-10.3796
1_1	-10.3806
39_1	-10.382
▁Le	-10.3833
▁income	-10.3859
went	-10.386
▁15,	-10.3865
▁17,	-10.3866
▁diameter	-10.3883
▁51	-10.3894
mb	-10.3909
▁q	-10.3912
▁Series	-10.3943
▁1978	-10.3946
▁super	-10.3952
▁playing	-10.3955
▁Loss	-10.3977
▁Z	-10.3983
2000_	-10.3984
run	-10.3984
bu	-10.399
▁joined	-10.3992
_2006	-10.3994
▁65	-10.3999
gen	-10.4006
17_1	-10.4008
census	-10.404
-25	-10.4041
open	-10.4042
▁awards	-10.4051
X	-10.4059
▁launched	-10.4067
▁"23	-10.4073
▁local	-10.4077
▁make	-10.4084
ER	-10.4088
▁movie	-10.4093
▁Catalog	-10.4094
territory	-10.4095
▁townland	-10.4097
▁black	-10.4111
▁1988	-10.4116
ei	-10.412
▁30,	-10.413
language	-10.414
▁aircraft	-10.4148
▁"30	-10.4151
▁census	-10.4151
goal	-10.4157
▁work	-10.4158
ren	-10.4159
▁winnings	-10.4162
▁[	-10.4183
events	-10.4189
▁authors	-10.4193
▁Ha	-10.4194
▁60	-10.4195
▁sp	-10.4213
contestant	-10.4218
quantity	-10.4219
New	-10.422
▁green	-10.4224
port	-10.4235
ourist	-10.4239
▁fm	-10.4243
role	-10.4247
▁Ra	-10.426
▁Frequency	-10.4267
▁correspond	-10.4267
EPT	-10.4267
▁Drawn	-10.427
▁Driver	-10.4272
ale	-10.428
▁entries	-10.4283
▁1966	-10.429
▁IATA	-10.4292
▁doubles	-10.4295
▁Ma	-10.4298
▁republican	-10.4305
▁species	-10.4319
rs	-10.4322
▁Population	-10.4328
▁Height	-10.4329
champion	-10.4333
▁destination	-10.4336
58_1	-10.4336
owner	-10.4343
▁62	-10.4347
▁grade	-10.4363
16_1	-10.4366
low	-10.4382
▁dorm	-10.4386
ab	-10.4391
▁"4"	-10.4395
▁3"	-10.4405
hu	-10.4406
grand	-10.4407
▁water	-10.4413
term	-10.4421
▁"5"	-10.4425
▁"22	-10.4429
episodes	-10.4431
ground	-10.4442
▁Rating	-10.4443
▁EX	-10.4444
pinyin	-10.4447
▁First	-10.4449
▁Ro	-10.4455
▁two	-10.4503
HAN	-10.4508
▁japanese	-10.451
-20	-10.4512
▁weeks	-10.4512
▁"27	-10.4538
▁jersey	-10.4564
over	-10.457
ratio	-10.4578
4_3	-10.4586
catalog	-10.4587
pop	-10.4589
35_1	-10.4601
▁"21	-10.4602
á	-10.4609
-11	-10.4613
▁Carolina	-10.4621
ji	-10.4636
▁1"	-10.4642
▁1961	-10.4644
dy	-10.4663
▁6–2	-10.4668
▁Years	-10.4678
sk	-10.4687
▁tyre	-10.4691
▁po	-10.4693
erp	-10.472
▁use	-10.4721
▁Al	-10.4728
3_1	-10.4731
0_2	-10.4752
extra	-10.4775
third	-10.4775
melbourne	-10.4775
paul	-10.4779
ant	-10.4782
mer	-10.4802
88_1	-10.4816
yr	-10.4828
▁details	-10.483
rockets	-10.4832
▁Runner	-10.4837
▁gt	-10.4838
ix	-10.4844
▁2010"	-10.4848
▁headquarters	-10.4873
▁"16	-10.4873
é	-10.4888
▁clubs	-10.4892
none	-10.4896
▁mixed	-10.4898
▁1964	-10.4905
▁react	-10.495
ber	-10.4958
▁ticket	-10.4961
gdp	-10.4966
Club	-10.4967
▁IN	-10.4968
▁finalist	-10.4979
▁earnings	-10.4988
philadelphia	-10.4988
и	-10.4988
arrangement	-10.4988
▁kind	-10.4988
mark	-10.4989
ong	-10.499
▁Losses	-10.499
▁san	-10.4994
▁website	-10.4999
eu	-10.5007
▁dept	-10.5011
▁13,	-10.5013
▁1974	-10.5014
▁3–6	-10.5014
▁29,	-10.5019
▁Center	-10.5024
▁revenue	-10.5033
crs	-10.5057
▁mu	-10.5063
▁"7"	-10.5068
den	-10.508
table	-10.5082
red	-10.5089
▁route	-10.5094
▁18,	-10.5097
sur	-10.5103
ek	-10.5113
▁established	-10.5124
▁20,	-10.5128
▁career	-10.513
#	-10.5132
shi	-10.5134
erry	-10.5137
▁storm	-10.514
call	-10.514
▁63	-10.5149
▁St	-10.5149
richmond	-10.5155
▁"17	-10.5158
tri	-10.5163
opened	-10.5166
▁ga	-10.5167
▁Final	-10.5168
tra	-10.5173
che	-10.5191
non	-10.5201
84_1	-10.5207
▁nomination	-10.5212
-4"	-10.5237
▁members	-10.5246
▁1976	-10.5248
▁Me	-10.525
▁death	-10.5254
don	-10.5254
▁fight	-10.5261
▁hold	-10.5274
old	-10.5278
east	-10.5299
dd	-10.5303
▁rd	-10.5304
52_1	-10.5325
ec	-10.5326
▁major	-10.5341
chicago	-10.5357
manufacturer	-10.5366
▁Mark	-10.5366
▁br	-10.5376
▁content	-10.5379
Mike	-10.5381
max	-10.5389
▁"24	-10.5401
eng	-10.5407
men	-10.5415
▁completed	-10.5429
▁Vi	-10.5432
TV	-10.5436
▁"28	-10.5451
▁crew	-10.5454
ig	-10.5456
▁scores	-10.5458
▁"6"	-10.546
_$_	-10.5463
▁pa	-10.5465
▁"29	-10.5466
po	-10.5467
fname	-10.5473
▁wheel	-10.5482
AS	-10.5484
▁qualifying	-10.5488
color	-10.55
▁save	-10.551
ara	-10.5518
nick	-10.552
▁na	-10.5539
force	-10.554
▁43	-10.554
▁level	-10.5557
democratic	-10.5566
clay	-10.5567
earnings	-10.5573
tu	-10.5577
oli	-10.5589
▁1982	-10.559
▁1965	-10.5593
▁kilda	-10.5594
▁Area	-10.5594
nov	-10.5604
__2009_	-10.5607
▁Win	-10.5622
▁campus	-10.5639
las	-10.564
ring	-10.5641
▁At	-10.5643
way	-10.5651
▁+1	-10.5667
mil	-10.5668
tan	-10.5685
▁12"	-10.569
▁26,	-10.5695
▁Championship	-10.5698
▁ho	-10.5707
▁West	-10.5708
▁mean	-10.5712
▁songs	-10.5714
▁pro	-10.5719
ance	-10.5723
55_1	-10.5742
▁"3"	-10.5756
▁wickets	-10.5757
е	-10.5765
footscray	-10.5765
metres	-10.5765
▁locomotive	-10.5766
_[	-10.5766
▁township	-10.5767
board	-10.5767
▁64	-10.5772
level	-10.5774
builder	-10.5777
Date	-10.5779
hometown	-10.5784
▁Age	-10.5787
pro	-10.5793
-19	-10.5816
▁"8"	-10.582
roll	-10.583
ey	-10.583
bar	-10.5837
▁1981	-10.5849
▁shop	-10.5853
log	-10.5858
▁1971	-10.5876
▁free	-10.591
ole	-10.5919
yn	-10.592
▁bank	-10.5922
▁ended	-10.5932
ros	-10.5934
iv	-10.5968
Attraction	-10.5969
▁IHSA	-10.5969
▁ascending	-10.5969
▁happened	-10.597
▁FOR	-10.597
_2001	-10.5981
hawthorn	-10.5981
03_1	-10.5988
transfer	-10.5989
mon	-10.5991
entrant	-10.5991
left	-10.5995
▁hard	-10.5997
▁nfl	-10.5998
ex	-10.6004
▁strokes	-10.601
▁license	-10.6026
▁2.0	-10.6041
62_1	-10.6044
▁shirt	-10.6051
▁International	-10.6051
die	-10.6055
ray	-10.6056
▁singer	-10.6058
43_1	-10.6073
▁vacator	-10.6085
▁bay	-10.6086
▁mo	-10.6086
apt	-10.6087
83_1	-10.6087
sen	-10.6088
via	-10.6097
▁out	-10.6099
▁take	-10.611
gs	-10.6133
77_1	-10.6137
7_1	-10.6143
ud	-10.6146
▁house	-10.6149
▁pts	-10.6161
▁le	-10.6163
ps	-10.6164
▁Category	-10.6178
above	-10.6178
▁Hill	-10.6181
▁actress	-10.6189
▁David	-10.6189
▁torque	-10.6189
her	-10.6193
toronto	-10.6194
▁1973	-10.6202
People	-10.6203
prize	-10.6205
decile	-10.6206
album	-10.6206
December	-10.6206
parish	-10.6208
▁ICAO	-10.6208
▁1.0	-10.6209
entry	-10.621
national	-10.6211
urban	-10.6214
ue	-10.6218
▁seat	-10.6219
cuts	-10.6221
▁CLASS	-10.6226
▁carolina	-10.6226
▁qualification	-10.6226
▁"26	-10.6228
tour	-10.6229
▁*	-10.6246
finalists	-10.6251
▁84	-10.6254
ut	-10.6259
work	-10.6262
ah	-10.6278
▁LOCATION	-10.6278
▁standard	-10.6296
▁verb	-10.6296
▁festival	-10.6305
▁opening	-10.631
▁hours	-10.6313
27_1	-10.6318
21_1	-10.6325
24_1	-10.6371
pole	-10.6371
▁Lo	-10.6374
ade	-10.6386
stu	-10.6391
▁rfc	-10.6391
69_1	-10.6401
DP	-10.6402
hr	-10.6407
36_1	-10.6414
▁ko	-10.6416
StuID	-10.6423
friendly	-10.6424
draft	-10.6428
ven	-10.6432
ben	-10.6433
▁ne	-10.6434
fred	-10.6436
min	-10.6438
chi	-10.644
▁Los	-10.6447
▁6"	-10.6455
▁red	-10.6459
▁singles	-10.6477
400	-10.6478
ram	-10.6478
_2013	-10.648
US	-10.6484
net	-10.6492
▁mi	-10.6497
du	-10.6501
▁loan	-10.6503
▁loser	-10.651
▁serial	-10.652
▁ties	-10.6536
▁comp	-10.6548
100	-10.6549
ms	-10.655
25_1	-10.6552
▁operator	-10.6565
second	-10.6587
ball	-10.659
▁base	-10.66
▁trip	-10.6607
grizzlies	-10.6608
▁Apartment	-10.6608
option	-10.6609
▁musical	-10.6613
▁publisher	-10.662
yo	-10.6638
▁Green	-10.6643
▁col	-10.6643
▁opened	-10.6646
▁1977	-10.6646
▁Europe	-10.6649
canada	-10.665
gross	-10.6654
current	-10.6655
46_1	-10.6659
▁some	-10.6661
yards	-10.6684
medals	-10.6684
bit	-10.6686
▁can	-10.6687
▁Mar	-10.6693
▁cities	-10.6695
▁Region	-10.67
ff	-10.6707
▁up	-10.6713
amp	-10.6733
▁tracks	-10.6735
74_1	-10.6735
can	-10.6738
ala	-10.6745
val	-10.6749
pre	-10.6749
▁construction	-10.675
ova	-10.6751
▁side	-10.6759
drivers	-10.6768
▁Award	-10.6769
▁Opponents	-10.6776
2006	-10.6784
45_1	-10.6789
vote	-10.6793
KE	-10.6795
▁ca	-10.6796
az	-10.6797
ning	-10.6804
been	-10.6812
.8%	-10.6813
death	-10.6818
▁angeles	-10.683
▁entrepreneur	-10.683
▁electorate	-10.6841
con	-10.6843
▁star	-10.6853
▁premier	-10.6857
06_1	-10.6861
▁ratio	-10.6862
ris	-10.687
▁2–6	-10.6876
designation	-10.6883
translation	-10.6885
diameter	-10.6886
career	-10.6887
tax	-10.6887
January	-10.6888
authority	-10.6888
▁platform	-10.6888
nominated	-10.6888
green	-10.6891
floors	-10.6893
ick	-10.6895
my	-10.6899
-14	-10.6899
44_1	-10.6906
41_1	-10.692
sport	-10.6925
bus	-10.6927
The	-10.6933
33_1	-10.6941
▁500	-10.6964
FL	-10.6969
▁codes	-10.6995
▁administrative	-10.6999
if	-10.701
12"	-10.701
▁produced	-10.7024
▁27,	-10.7027
▁documents	-10.7028
ani	-10.7044
amenity	-10.7058
▁also	-10.7058
▁Person	-10.7059
sp	-10.7062
aa	-10.7063
▁slam	-10.7063
600	-10.7065
successor	-10.7068
_2008	-10.7076
De	-10.7081
▁Episode	-10.7091
▁30?	-10.7098
2_3	-10.71
▁190	-10.7102
▁bleeding	-10.711
▁z	-10.7122
free	-10.7124
university	-10.7126
April	-10.7126
United	-10.7127
▁sh	-10.7128
project	-10.7131
touchdowns	-10.7133
▁line	-10.7134
▁7–6	-10.7135
segment	-10.7151
hy	-10.7175
store	-10.7177
▁condition	-10.7177
tion	-10.7183
ook	-10.7188
▁deaths	-10.7189
▁test	-10.7192
rk	-10.7199
▁right	-10.7205
well	-10.7212
▁minister	-10.7215
ate	-10.7224
▁sub	-10.7229
▁minutes	-10.7244
▁back	-10.7264
ane	-10.7269
▁user	-10.7269
▁Bob	-10.7271
_277	-10.7286
mel	-10.7288
between	-10.729
▁Division	-10.729
▁Partner	-10.729
act	-10.729
mens	-10.729
greatest	-10.7294
ator	-10.7303
rt	-10.7318
8_3	-10.7322
Ends	-10.7325
▁mc	-10.7326
63_1	-10.7336
▁producer	-10.7346
▁sponsor	-10.7348
▁World	-10.7353
▁common	-10.7354
titles	-10.7359
western	-10.7362
▁mpg	-10.7364
zi	-10.7366
period	-10.7369
October	-10.737
pct	-10.737
▁dance	-10.7371
judge	-10.7371
fastest	-10.7371
▁Pa	-10.7373
▁developer	-10.7373
▁LI	-10.7377
▁works	-10.7385
train	-10.7407
▁Du	-10.7412
▁Do	-10.7414
▁white	-10.7415
▁prod	-10.7417
bob	-10.7418
driverid	-10.7419
▁"10"	-10.7426
side	-10.7429
▁Best	-10.7432
▁bowl	-10.7435
ck	-10.7436
ster	-10.7438
▁men	-10.7449
▁range	-10.7456
140	-10.7458
▁stations	-10.7461
▁fleet	-10.7462
bert	-10.7464
▁translation	-10.7469
▁1000	-10.747
+	-10.7477
▁28,	-10.7483
-2"	-10.7503
_09	-10.7506
tre	-10.7507
▁Paul	-10.7512
1000	-10.7527
▁fall	-10.7527
administer	-10.7528
jazz	-10.7529
Re	-10.7529
▁clay	-10.753
▁Mc	-10.7531
▁Lake	-10.7532
▁Arena	-10.7532
▁Race	-10.7535
▁Richmond	-10.7553
▁finals	-10.7555
▁exact	-10.7563
▁Draws	-10.7566
▁public	-10.7571
▁received	-10.7588
▁constellation	-10.7593
30_1	-10.7602
use	-10.7604
▁jan	-10.7613
david	-10.7617
style	-10.7617
▁ha	-10.7617
affiliation	-10.7619
interview	-10.7621
people	-10.7621
>	-10.7621
fm	-10.7623
▁ben	-10.7625
9_3	-10.7629
mu	-10.763
ess	-10.7651
▁con	-10.7658
▁#1	-10.7659
▁africa	-10.7664
ali	-10.7671
yu	-10.7678
▁fee	-10.769
-12	-10.769
▁Status	-10.7694
▁publication	-10.7694
ella	-10.77
ail	-10.7703
▁started	-10.771
82_1	-10.7712
ip	-10.7719
championships	-10.7726
sha	-10.7737
▁People	-10.7742
▁Jo	-10.7742
ola	-10.7758
tim	-10.7758
dt	-10.7762
▁attend	-10.7763
▁records	-10.7769
ure	-10.777
minnesota	-10.7772
ascension	-10.7772
▁prior	-10.7772
10"	-10.7775
eva	-10.7781
▁tour	-10.7784
▁body	-10.7785
▁Price	-10.7786
sorted	-10.779
▁Town	-10.7792
▁1969	-10.7803
▁swimmer	-10.7849
lie	-10.7855
▁golds	-10.7862
church	-10.7862
▁masters	-10.787
mike	-10.787
ung	-10.7872
system	-10.7873
▁cast	-10.7874
phone	-10.7875
distance	-10.7877
November	-10.7877
ett	-10.7879
ken	-10.7879
47_1	-10.7888
revenue	-10.789
▁placed	-10.7897
300	-10.7905
▁but	-10.7906
▁budget	-10.7911
▁silvers	-10.7913
▁al	-10.7918
▁cost	-10.7934
▁snatch	-10.7963
ties	-10.7971
dormid	-10.7973
sub	-10.7974
▁min	-10.7987
ng	-10.7994
76_1	-10.7998
center	-10.7999
▁58	-10.8004
usa	-10.8015
▁Faculty	-10.8022
▁auckland	-10.8022
▁contain	-10.8022
acres	-10.8024
__2002_	-10.8026
▁classic	-10.8035
fc	-10.8037
princes	-10.8043
▁block	-10.8047
▁1972	-10.8053
▁three	-10.8057
▁this	-10.8065
5_2	-10.8068
▁56	-10.8082
hp	-10.8087
og	-10.8094
▁come	-10.8103
▁railway	-10.8111
▁celebrit	-10.8122
▁6–1	-10.8122
ov	-10.8127
collingwood	-10.8131
essendon	-10.8133
fitzroy	-10.8133
subject	-10.8134
meaning	-10.8135
tur	-10.8137
active	-10.8137
grade	-10.8139
decision	-10.8142
▁pop	-10.8142
sales	-10.8144
nhl	-10.8144
winners	-10.8148
▁recent	-10.8154
▁brand	-10.8154
▁sales	-10.8164
▁53	-10.8169
▁assets	-10.8175
▁socket	-10.8175
▁premiere	-10.818
▁style	-10.8184
lake	-10.8186
main	-10.819
▁Song	-10.8199
▁Be	-10.8204
▁appointment	-10.821
hl	-10.8212
stem	-10.8228
▁fuel	-10.8229
▁short	-10.8242
AR	-10.8246
▁parish	-10.8249
▁american	-10.825
▁GP	-10.8252
▁wrestler	-10.8269
va	-10.8271
▁copa	-10.8271
ratings	-10.8271
ispanic	-10.8272
61_1	-10.8273
▁germany	-10.8274
▁Chassis	-10.8278
▁watched	-10.8279
▁sspec	-10.8279
nt	-10.8281
▁principal	-10.8293
▁57	-10.8294
_2011	-10.8304
▁departure	-10.8309
cu	-10.831
▁geo	-10.8316
2:	-10.8321
▁Peter	-10.8323
-16	-10.8323
St	-10.8326
mann	-10.8331
▁radio	-10.8338
oct	-10.8345
▁Di	-10.8348
wil	-10.8369
stone	-10.838
▁aggregate	-10.8381
kar	-10.8387
▁√	-10.8387
australia	-10.8392
▁mar	-10.8393
pet	-10.8394
coast	-10.8401
available	-10.8401
cross	-10.8403
japan	-10.8406
ama	-10.8408
institution	-10.8408
family	-10.8408
athlete	-10.841
ish	-10.8411
▁resolution	-10.8414
pl	-10.8424
▁El	-10.843
▁david	-10.8444
▁ka	-10.8447
anna	-10.8469
▁conceded	-10.8485
ld	-10.849
iz	-10.8495
42_1	-10.8499
▁design	-10.8501
▁Y	-10.8505
mp	-10.8525
89_1	-10.8526
▁Ko	-10.854
using	-10.854
▁chief	-10.8541
indy	-10.8543
▁featured	-10.8546
los	-10.8546
▁National	-10.8547
▁1956	-10.8562
▁Pat	-10.8563
▁Film	-10.858
▁1954	-10.8585
64_1	-10.859
vin	-10.8592
▁given	-10.8592
seated	-10.8594
gain	-10.8608
errie	-10.8612
▁package	-10.8625
auth	-10.8632
▁Smith	-10.8636
▁card	-10.8647
▁displacement	-10.8647
2000	-10.8656
▁mission	-10.8657
48_1	-10.8661
ever	-10.8662
races	-10.8666
geelong	-10.8678
▁Jack	-10.868
7.3	-10.8682
detroit	-10.8682
tonnage	-10.8682
football	-10.8683
Party	-10.8687
base	-10.8687
gender	-10.8689
genre	-10.869
australian	-10.8693
▁volume	-10.8703
mcg	-10.8714
▁submission	-10.8714
bill	-10.8719
160	-10.8719
ye	-10.8724
held	-10.8726
qual	-10.8726
pr	-10.873
▁its	-10.8735
▁schools	-10.8735
ski	-10.8735
nes	-10.8745
▁1970	-10.8757
▁annual	-10.8759
ore	-10.8767
▁ex	-10.877
-21	-10.8771
ub	-10.8773
mmy	-10.8777
rey	-10.8781
▁streak	-10.8804
cap	-10.8808
▁Movie	-10.8812
orlando	-10.8812
those	-10.8812
▁Original	-10.8812
▁alphabetic	-10.8812
▁Angeles	-10.8812
San	-10.8819
▁Lane	-10.882
▁program	-10.8833
bp	-10.8834
▁England	-10.8852
ting	-10.8853
▁paul	-10.886
▁Ka	-10.8862
▁cover	-10.8865
▁elevation	-10.8873
aka	-10.8874
▁weekly	-10.8877
dan	-10.8879
cor	-10.8893
▁Illinois	-10.8897
_255	-10.8899
▁59	-10.8902
▁FC	-10.8902
operation	-10.8908
dave	-10.8912
poll	-10.8917
▁payment	-10.8943
▁centerfold	-10.8944
▁1968	-10.8949
▁japan	-10.8953
▁Canada	-10.8955
employee	-10.8957
organization	-10.8961
boston	-10.8963
info	-10.8965
mission	-10.8969
map	-10.8972
paper	-10.8972
chinese	-10.8972
vehicle	-10.8972
international	-10.8973
South	-10.8973
ard	-10.8985
▁kickoff	-10.8989
▁commissioned	-10.8991
▁nd	-10.8997
▁western	-10.8999
▁85	-10.9024
▁ro	-10.9025
ari	-10.903
▁He	-10.9036
▁president	-10.9047
▁ratings	-10.9049
▁champions	-10.905
▁loses	-10.9062
▁gown	-10.9063
▁"$	-10.9069
▁sydney	-10.907
22_2	-10.908
MA	-10.9086
so	-10.9086
runs	-10.9087
▁Finish	-10.9089
▁WINE	-10.9089
▁6–7	-10.9094
gg	-10.91
ik	-10.9101
▁surname	-10.9106
lar	-10.9106
▁leader	-10.9114
▁guard	-10.9117
ct	-10.913
je	-10.9134
▁"9"	-10.9144
–7	-10.9154
▁village	-10.9158
▁ii	-10.9159
ita	-10.9164
▁Tom	-10.9166
link	-10.9179
▁2006"	-10.9185
ez	-10.9186
gal	-10.9193
▁williams	-10.9199
ev	-10.9199
characteristic	-10.9206
▁live	-10.9208
finalist	-10.9222
▁78	-10.9228
starts	-10.9228
20_1	-10.923
▁system	-10.9258
▁martin	-10.9261
Airport	-10.9262
since	-10.9262
japanese	-10.9266
campus	-10.9266
performer	-10.9267
highest	-10.9274
capital	-10.9279
▁fc	-10.929
6_3	-10.9307
king	-10.9322
–1"	-10.9326
_256286_	-10.9328
32_1	-10.9331
▁pre	-10.9335
_15187735_1	-10.9349
ica	-10.9351
▁2005"	-10.9364
ze	-10.9366
served	-10.9369
ohio	-10.9375
▁Rider	-10.9376
▁tryout	-10.9376
▁9"	-10.9378
▁led	-10.9385
▁Ho	-10.9385
_11677691_	-10.9386
0.3	-10.9386
▁james	-10.9392
xi	-10.9395
ear	-10.9412
▁nations	-10.9414
▁Money	-10.9418
▁airports	-10.942
ice	-10.9421
▁7–5	-10.9422
▁Marg	-10.9425
▁voice	-10.9429
▁billion	-10.9435
col	-10.9435
1_3	-10.9436
kh	-10.9448
▁Chicago	-10.9454
▁object	-10.9454
95_2	-10.9455
row	-10.9471
-6"	-10.9475
▁millions	-10.948
war	-10.9487
▁projects	-10.9499
▁senior	-10.9502
▁France	-10.9502
99_1	-10.9503
OT	-10.9511
▁stolen	-10.9514
▁1960	-10.9525
pm	-10.9555
▁cars	-10.956
two	-10.956
ada	-10.9561
▁1967	-10.9564
podiums	-10.957
February	-10.957
outgoing	-10.9571
March	-10.9572
_262	-10.9579
feet	-10.9581
▁gp	-10.9597
▁Nick	-10.9597
_2009	-10.9603
▁web	-10.9623
00_1	-10.9623
households	-10.9624
▁106	-10.9627
ric	-10.9631
▁she	-10.9633
cr	-10.9633
▁Product	-10.9634
▁Chris	-10.9637
▁asian	-10.9637
$	-10.9649
▁#2	-10.9649
Z	-10.9658
▁bush	-10.9661
tiger	-10.9668
vancouver	-10.9669
▁Collingwood	-10.9669
▁jones	-10.9669
▁prothrombin	-10.967
ardinia	-10.967
▁gymnast	-10.967
▁below	-10.967
▁story	-10.9672
male	-10.9676
popular	-10.9679
▁Apps	-10.9689
GA	-10.969
▁delegate	-10.9693
_2004	-10.9696
mID	-10.9696
bel	-10.9698
▁playoff	-10.9702
▁ta	-10.9709
2002	-10.9709
▁fl	-10.9709
lock	-10.9713
▁"0.	-10.9714
▁balance	-10.9724
▁Toronto	-10.9725
ino	-10.9729
7_3	-10.9732
*	-10.9734
cl	-10.9735
semifinalist	-10.9736
▁reserved	-10.9741
▁22"	-10.9743
_2010	-10.9747
▁elector	-10.975
▁published	-10.975
band	-10.9752
May	-10.9753
▁Lee	-10.9755
▁we	-10.9756
isa	-10.9758
indian	-10.9777
▁4"	-10.978
▁10"	-10.9784
▁steals	-10.98
ban	-10.9826
3_3	-10.9829
▁Texas	-10.9838
▁laid	-10.9843
▁tied	-10.9848
wr	-10.9849
▁mccain	-10.9851
jim	-10.9863
jack	-10.987
af	-10.987
▁life	-10.9872
hel	-10.9873
▁CAR	-10.9875
victoria	-10.9876
michael	-10.9877
night	-10.9878
template	-10.9879
origin	-10.9879
pal	-10.988
completed	-10.9881
species	-10.9881
lead	-10.9882
rick	-10.9882
duration	-10.9882
span	-10.9883
▁pi	-10.9884
building	-10.9884
▁email	-10.9889
spain	-10.9896
_173	-10.9898
rich	-10.9905
van	-10.9907
utc	-10.9908
cal	-10.9912
ted	-10.9914
▁2004"	-10.9916
No	-10.992
▁vs	-10.992
rie	-10.9922
word	-10.9925
▁individual	-10.9926
MS	-10.9934
tier	-10.9948
▁250	-10.9957
russia	-10.9967
_1745843_	-10.9972
▁Highschooler	-10.9972
▁companies	-10.9972
▁zealand	-10.9972
▁Power	-10.9972
metric	-10.9973
▁Johnson	-10.9976
▁parties	-10.9978
34_1	-10.9984
▁account	-10.9984
core	-10.9994
china	-10.9994
09_1	-11.0007
▁"12"	-11.0013
Mar	-11.0014
od	-11.0017
59_1	-11.0021
▁125	-11.0022
cho	-11.0023
▁king	-11.0028
▁10.	-11.0031
cName	-11.0032
▁5"	-11.0036
▁du	-11.004
▁quarter	-11.004
dances	-11.006
▁del	-11.0065
▁template	-11.0067
▁Notes	-11.0069
_1999	-11.0081
▁tyres	-11.0089
▁Republican	-11.0095
▁31,	-11.0099
olo	-11.0101
author	-11.0103
▁odds	-11.0107
▁non	-11.0124
not	-11.0124
▁mintage	-11.0133
▁7"	-11.0138
▁active	-11.0143
▁physician	-11.0146
▁meaning	-11.0152
▁Washington	-11.0159
▁royal	-11.0173
▁Long	-11.0183
▁trophy	-11.0186
▁Man	-11.0191
▁un	-11.0193
tro	-11.0193
europe	-11.0194
honda	-11.0197
choice	-11.0197
index	-11.02
8_2	-11.02
account	-11.0202
debut	-11.0204
▁bridge	-11.0212
▁Ben	-11.0212
▁union	-11.0213
music	-11.0214
▁"50	-11.0215
gn	-11.0225
▁flag	-11.0233
▁hand	-11.0235
▁friendly	-11.0236
37_1	-11.0237
rab	-11.0254
sq	-11.0259
▁job	-11.0274
▁island	-11.0278
▁participate	-11.0282
vs	-11.0283
▁Match	-11.0283
▁Geelong	-11.0285
▁satellite	-11.0285
▁Visitor	-11.0285
▁Release	-11.0285
▁Raceway	-11.0285
Chinese	-11.0285
▁declination	-11.0285
▁Label	-11.0285
fifa	-11.0286
▁miss	-11.0286
form	-11.0286
yaar	-11.0287
80_1	-11.0293
ky	-11.0294
▁1950	-11.0303
▁combined	-11.0304
▁sex	-11.0313
▁Michael	-11.0316
▁Format	-11.032
▁Essendon	-11.0331
▁tall	-11.0334
eather	-11.034
.0%	-11.0341
▁Pro	-11.0342
▁counties	-11.0346
ally	-11.0348
▁Ba	-11.0352
▁accounts	-11.0357
▁Sydney	-11.0371
26_1	-11.0372
teams	-11.0388
▁partnering	-11.0388
▁pe	-11.0393
lat	-11.0412
_210	-11.0415
▁clark	-11.0416
▁elimination	-11.0424
▁16"	-11.0432
▁commentator	-11.0434
▁trainer	-11.0434
▁MHz	-11.0438
▁adelaide	-11.0438
▁jim	-11.044
▁Lead	-11.0443
▁vacancy	-11.0444
household	-11.046
86_1	-11.046
▁van	-11.0463
character	-11.047
▁da	-11.0471
rc	-11.0471
▁tier	-11.0484
▁Jeff	-11.0491
▁1979	-11.0495
▁recipient	-11.0496
▁fourth	-11.0505
▁wind	-11.0511
▁Q	-11.0515
í	-11.0517
nc	-11.052
▁ran	-11.0523
aid	-11.0529
▁texas	-11.0532
junction	-11.0532
▁tom	-11.0532
quarter	-11.0533
_18600760_	-11.0533
classroom	-11.0534
elevation	-11.0535
93_1	-11.0537
horse	-11.0537
republican	-11.0537
super	-11.0537
aw	-11.0539
previous	-11.0539
▁item	-11.054
▁Goal	-11.0543
womens	-11.0556
▁presenter	-11.0556
fin	-11.056
8.9	-11.0563
▁albums	-11.0567
▁Course	-11.0572
–8	-11.0576
park	-11.0581
▁Artist	-11.0586
▁receive	-11.0592
▁All	-11.0595
bal	-11.0602
▁Part	-11.0606
Airline	-11.0606
schedule	-11.0607
▁Circuit	-11.0607
_1965650_	-11.0607
meters	-11.0609
▁kingdom	-11.0614
right	-11.0616
▁fate	-11.0616
▁locations	-11.0619
▁Ri	-11.0621
unt	-11.0621
ves	-11.0627
ward	-11.0628
_$	-11.0628
kin	-11.063
▁farm	-11.0631
deaths	-11.0634
aired	-11.0639
▁departments	-11.0645
▁miles	-11.0652
Gu	-11.0654
_12962773_1	-11.0658
72_1	-11.066
qf	-11.0665
hawk	-11.0667
▁2011"	-11.0669
▁1953	-11.0678
▁Addresses	-11.0683
-68	-11.0685
▁span	-11.0689
▁8"	-11.0691
-1"	-11.0693
des	-11.0697
▁nat	-11.0699
▁orders	-11.0702
▁Na	-11.0702
▁mon	-11.0706
▁media	-11.0709
▁killed	-11.071
▁socialist	-11.071
HL	-11.0722
unit	-11.0734
kins	-11.0744
▁bill	-11.0754
▁ordered	-11.0758
2.6	-11.0761
▁addresses	-11.077
anta	-11.0777
▁central	-11.0779
mac	-11.0788
yds	-11.0797
_150	-11.0802
aki	-11.0803
appearance	-11.0806
▁Group	-11.0808
▁kit	-11.0812
▁california	-11.0821
▁pat	-11.083
AC	-11.0837
voice	-11.0837
▁Scott	-11.0837
job	-11.0846
20"	-11.0847
▁James	-11.0849
ative	-11.0849
losing	-11.0867
▁0.1	-11.0869
try	-11.0871
ih	-11.0873
▁stroke	-11.0874
short	-11.0876
washington	-11.0877
Service	-11.0877
public	-11.0879
9.0	-11.0879
england	-11.0879
balance	-11.088
performance	-11.0883
rpm	-11.0883
television	-11.0886
▁digital	-11.0891
orders	-11.0896
▁Students	-11.0901
▁gr	-11.0902
skip	-11.0909
sson	-11.0909
frank	-11.0919
__2012_	-11.0921
uck	-11.0926
▁si	-11.0931
ire	-11.0932
▁000	-11.0933
▁qualify	-11.0937
Quantity	-11.0941
pittsburgh	-11.0941
thromboplastin	-11.0941
▁Accounts	-11.0941
▁Footscray	-11.0941
▁Victoria	-11.0941
süd	-11.0941
▁Street	-11.0941
▁Kingdom	-11.0941
▁brown	-11.0942
worth	-11.0942
▁appointed	-11.0947
▁finale	-11.0949
▁Martin	-11.095
7_4	-11.0954
▁Ru	-11.0954
2–1	-11.0956
/2	-11.0956
cover	-11.0956
▁east	-11.0964
▁assist	-11.0966
reg	-11.0967
3.0	-11.0968
receipts	-11.0981
▁1963	-11.0985
án	-11.0987
▁committee	-11.099
rio	-11.0992
pur	-11.0993
▁single	-11.0995
▁Germany	-11.1008
booking	-11.1014
▁partial	-11.1016
▁platelet	-11.1019
▁Lu	-11.1023
gene	-11.1027
▁ra	-11.103
▁Play	-11.1038
nu	-11.1038
▁"13"	-11.1039
▁Australian	-11.1043
▁machine	-11.1047
▁spouse	-11.1061
14"	-11.1066
anne	-11.1067
▁came	-11.1069
▁low	-11.1071
results	-11.1076
ings	-11.1097
▁football	-11.1103
-22	-11.1115
068	-11.1121
ST	-11.1122
ries	-11.1124
days	-11.1127
bc	-11.1129
▁sun	-11.1129
sta	-11.114
▁gas	-11.1141
▁zip	-11.1146
▁reported	-11.1152
▁bbc	-11.1165
04"	-11.1166
gb	-11.1166
▁Call	-11.1169
▁fin	-11.1174
▁memory	-11.1176
▁400	-11.1177
▁Robert	-11.1184
cat	-11.1191
▁example	-11.1205
▁61	-11.1211
▁"11"	-11.1215
▁instructor	-11.1217
04_1	-11.1222
▁StuID	-11.1232
each	-11.1234
branch	-11.1234
sr	-11.1237
three	-11.1237
sec	-11.1238
reason	-11.1239
diff	-11.124
salary	-11.124
September	-11.124
fast	-11.1242
wan	-11.1249
electorates	-11.125
iata	-11.1251
jan	-11.1253
▁hawks	-11.1259
mw	-11.126
▁ref	-11.1262
theme	-11.1262
itt	-11.1263
▁robert	-11.1265
nfl	-11.1268
ava	-11.1274
▁represent	-11.1281
_2508633_	-11.1286
NAME	-11.1286
error	-11.1286
uefa	-11.1287
ele	-11.1287
▁Rooms	-11.1287
passengers	-11.1288
far	-11.1289
opera	-11.1296
75_1	-11.1302
dfl	-11.1308
_185	-11.1311
▁old	-11.1311
tt	-11.1314
pri	-11.1314
▁2014	-11.1317
31_1	-11.1321
▁Coast	-11.1322
prof	-11.1333
▁teachers	-11.1335
▁law	-11.1342
▁lee	-11.135
pp	-11.1351
▁"22"	-11.1353
▁Station	-11.1354
▁"16"	-11.1357
har	-11.1361
steve	-11.1363
▁classroom	-11.1367
ling	-11.1369
vic	-11.1374
▁courses	-11.1374
▁150	-11.138
rep	-11.1381
▁vessel	-11.1381
▁stu	-11.1404
▁full	-11.1409
▁her	-11.1418
cmi	-11.1421
79_1	-11.1421
Product	-11.1425
▁Mountain	-11.1425
led	-11.1439
▁provider	-11.1441
matt	-11.1442
▁tonnage	-11.1454
▁theatre	-11.1456
▁formula	-11.1456
▁bu	-11.1463
▁cross	-11.1469
▁prominence	-11.147
▁sc	-11.147
▁louis	-11.1487
3_4	-11.1492
cost	-11.1492
▁Williams	-11.1502
▁find	-11.1505
▁American	-11.1509
apid	-11.1516
this	-11.1525
▁"100	-11.1527
▁rnd	-11.1527
▁pct	-11.153
-10"	-11.1551
▁chart	-11.1553
hand	-11.1553
fi	-11.1558
ium	-11.1562
▁strike	-11.1563
▁professor	-11.1574
_1160	-11.1577
02_1	-11.1592
▁"31	-11.1595
chris	-11.1596
items	-11.1598
unknown	-11.1602
▁urban	-11.1602
▁french	-11.1604
Michael	-11.1607
guard	-11.1608
zone	-11.161
black	-11.161
studio	-11.161
writer	-11.1612
swimsuit	-11.1615
weekly	-11.1628
entries	-11.163
brian	-11.1631
Ro	-11.1632
▁26"	-11.1633
▁sports	-11.1633
ō	-11.1639
ü	-11.1639
wer	-11.164
▁Louis	-11.1641
brazil	-11.1642
magnitude	-11.1643
phoenix	-11.1643
▁Jersey	-11.1643
▁descending	-11.1643
_2850912_	-11.1643
client	-11.1643
pilipinas	-11.1643
requested	-11.1643
_1473672_	-11.1643
Junior	-11.1643
▁Francisco	-11.1643
▁rangers	-11.1643
▁Red	-11.1644
▁Road	-11.1644
ref	-11.1644
▁Weight	-11.1644
▁earned	-11.1645
▁supporting	-11.1646
finals	-11.1646
livery	-11.165
own	-11.1651
▁1975	-11.1653
▁1-0	-11.1658
▁blue	-11.1671
▁perth	-11.1673
_2562572_2	-11.1677
49_1	-11.168
▁Japan	-11.1681
▁Hawthorn	-11.1681
▁Manufacturer	-11.1681
appearances	-11.1683
lf	-11.1686
cent	-11.1689
eck	-11.169
_149	-11.1693
▁pennant	-11.1696
-18	-11.1702
2_4	-11.171
▁england	-11.171
▁Black	-11.1712
00"	-11.1713
200	-11.1718
five	-11.1719
67_1	-11.1719
▁Products	-11.1728
ALL	-11.1733
▁Is	-11.1744
▁Ga	-11.1748
▁Africa	-11.1758
rough	-11.176
800	-11.1765
▁Championships	-11.1766
▁form	-11.1769
▁stock	-11.1772
els	-11.178
▁Member	-11.1788
▁band	-11.1789
▁former	-11.1798
▁Philadelphia	-11.1803
85_2	-11.1807
-27	-11.1814
hosted	-11.1822
nat	-11.1825
29_1	-11.1832
▁centre	-11.1834
nis	-11.1838
1898	-11.1841
90_2	-11.1841
ake	-11.1844
51_1	-11.1849
▁types	-11.1853
mail	-11.1863
16"	-11.1864
▁obama	-11.1865
bye	-11.1866
-5"	-11.1866
▁proto	-11.1871
▁british	-11.188
▁0.5	-11.188
01_1	-11.1888
07"	-11.1889
▁bills	-11.1894
▁Charles	-11.1901
▁bob	-11.1903
▁challenge	-11.1905
▁Won	-11.1914
ign	-11.1923
mountain	-11.1927
00?	-11.1935
ser	-11.1937
did	-11.194
sex	-11.1941
▁canada	-11.1941
▁Company	-11.1942
hab	-11.1945
ness	-11.1947
▁lo	-11.1949
mode	-11.1951
mount	-11.196
▁data	-11.1963
ration	-11.1966
23_2	-11.1967
▁scott	-11.1969
firm	-11.1971
sun	-11.1974
rID	-11.1977
5,000	-11.1978
03"	-11.1985
806	-11.1985
placing	-11.1988
__2006_	-11.1988
ferrari	-11.1989
combined	-11.1992
james	-11.1992
Price	-11.1992
principal	-11.1992
David	-11.1993
actress	-11.1993
publisher	-11.1993
website	-11.1994
Model	-11.1994
torque	-11.1994
▁blocks	-11.1995
▁drive	-11.2
body	-11.2
leading	-11.2001
dam	-11.2004
ington	-11.2006
▁port	-11.2007
lon	-11.2007
ö	-11.2011
▁mass	-11.2012
▁Director	-11.2013
▁Fitzroy	-11.2013
▁STUDENT	-11.2013
▁Office	-11.2013
▁checking	-11.2013
▁Mu	-11.2013
WEE	-11.2014
▁tech	-11.2014
ION	-11.2015
wales	-11.2016
shipping	-11.2017
key	-11.2018
▁denomination	-11.2019
exit	-11.2019
▁organisation	-11.202
▁motor	-11.2023
97_1	-11.2024
uid	-11.2027
burn	-11.2028
gh	-11.2034
▁orchestra	-11.2037
peter	-11.2039
sf	-11.204
90_1	-11.204
GER	-11.2041
_178	-11.2041
▁27"	-11.2042
▁branch	-11.2045
▁invoices	-11.2048
_15187735_	-11.2049
18_1	-11.205
miles	-11.2051
gar	-11.2059
▁Nov	-11.2063
▁Start	-11.2065
amon	-11.2069
_16799784_	-11.207
Ch	-11.2071
app	-11.2073
▁square	-11.2077
▁2001"	-11.2079
▁male	-11.208
199	-11.2081
rec	-11.2085
bad	-11.2087
–11	-11.2089
3-3	-11.2091
223	-11.2093
▁only	-11.2093
_18600760_1	-11.2099
▁index	-11.2115
▁Blue	-11.2118
sold	-11.2119
depth	-11.2124
anny	-11.2125
ON	-11.213
▁michael	-11.2131
▁soccer	-11.2132
▁voltage	-11.2132
▁sample	-11.2135
iu	-11.2135
champions	-11.2138
▁Pe	-11.2141
▁Boston	-11.2148
▁Democratic	-11.2148
ide	-11.2149
lam	-11.2149
pat	-11.2152
81_1	-11.2155
▁since	-11.2163
▁Airport	-11.2163
▁batting	-11.2164
opp	-11.2171
_101	-11.2175
▁su	-11.2188
▁detroit	-11.2195
▁lake	-11.2198
▁australia	-11.2206
greg	-11.2207
▁24"	-11.2209
▁clean	-11.2212
▁simplified	-11.2212
▁store	-11.2214
ise	-11.2216
▁0.0	-11.2222
▁profits	-11.2226
▁subject	-11.2227
▁Thomas	-11.2228
▁mls	-11.2228
▁"7.	-11.2234
▁florida	-11.2244
av	-11.2246
▁post	-11.2262
▁completion	-11.2265
▁ending	-11.2268
_142	-11.2281
mal	-11.2283
220	-11.2283
▁religion	-11.2292
▁window	-11.2292
19_1	-11.2296
3.4	-11.2296
685	-11.2298
law	-11.2298
▁1951	-11.2299
ould	-11.2304
read	-11.2306
wide	-11.2311
oc	-11.2314
Al	-11.2329
▁117	-11.2337
dale	-11.2347
▁21"	-11.2349
13_1	-11.2354
63_2	-11.2356
▁target	-11.2358
oon	-11.2363
▁Jim	-11.2374
clubs	-11.2376
▁iv	-11.2377
William	-11.2388
traditional	-11.239
organisation	-11.239
program	-11.2391
chief	-11.2393
▁review	-11.2393
fault	-11.2393
miss	-11.2393
▁Super	-11.2394
latitude	-11.2396
leader	-11.2396
replaced	-11.2397
glen	-11.2398
Appelation	-11.2398
▁Field	-11.2398
▁PersonFriend	-11.2398
▁watson	-11.2398
_1342013_	-11.2398
contact	-11.2398
▁actual	-11.2398
bishop	-11.2398
investor	-11.2398
▁Jones	-11.2398
evening	-11.2398
seattle	-11.2399
electricity	-11.2399
▁"6–4	-11.24
stein	-11.2401
characteristics	-11.2402
hdtv	-11.2403
▁CARS	-11.2403
saint	-11.2404
▁sail	-11.2404
nz	-11.2409
▁rec	-11.2414
▁withdrawn	-11.2415
ll	-11.2417
▁1958	-11.2421
▁countrylanguage	-11.2421
▁driving	-11.2423
▁spokesperson	-11.2423
▁Prince	-11.2423
dia	-11.243
ndy	-11.2433
▁Tries	-11.2436
lt	-11.2438
54_1	-11.2443
tony	-11.2443
und	-11.2449
▁Bar	-11.2454
▁women	-11.2454
▁smith	-11.2455
▁papers	-11.2461
.4"	-11.2462
bra	-11.2463
rod	-11.2464
▁Spain	-11.247
▁incoming	-11.2472
11"	-11.2476
lot	-11.2478
▁uk	-11.2485
▁became	-11.2488
_275	-11.2489
gt	-11.2489
nan	-11.249
▁Birth	-11.2503
gas	-11.2504
▁medicine	-11.2505
▁yacht	-11.2505
▁77	-11.2505
▁bar	-11.2508
sville	-11.2508
alex	-11.2512
▁giants	-11.2514
▁steve	-11.252
▁California	-11.2521
▁advisor	-11.2521
▁semester	-11.2521
▁sunk	-11.2525
rock	-11.2529
dr	-11.2537
▁pages	-11.2538
▁dar	-11.2538
▁colour	-11.2538
▁battle	-11.2538
▁feet	-11.2546
314	-11.2552
1938	-11.2553
▁manufacturers	-11.256
olympics	-11.2562
2%	-11.2564
▁arch	-11.2584
ré	-11.2588
ao	-11.259
▁tackle	-11.2599
▁Pi	-11.2604
cards	-11.2606
22_1	-11.2611
enny	-11.2612
ht	-11.2614
bil	-11.2619
▁attempts	-11.2621
▁protein	-11.2621
▁involved	-11.2624
▁so	-11.263
▁Frank	-11.2631
_15887683_	-11.2642
▁UK	-11.2644
210	-11.2652
▁8.8	-11.2654
ight	-11.2665
▁arrival	-11.2669
▁george	-11.2671
aut	-11.2675
▁month	-11.2678
our	-11.2681
pu	-11.2685
post	-11.2691
180	-11.2692
–19	-11.2694
_23292220_	-11.27
dar	-11.2702
-15	-11.2703
-7"	-11.2703
▁designation	-11.2705
▁"15"	-11.2707
▁13"	-11.2715
40"	-11.2715
▁awarded	-11.272
_1000_	-11.2727
verage	-11.2728
qui	-11.2731
▁rocket	-11.2734
83_2	-11.2735
▁sl	-11.2736
▁letter	-11.2738
▁ngc	-11.274
▁Run	-11.2742
master	-11.2742
▁0.2	-11.2744
▁Engine	-11.2754
▁am	-11.2754
▁purse	-11.2755
bell	-11.2756
star	-11.2756
erson	-11.2769
▁120	-11.2771
▁rob	-11.2775
met	-11.2779
▁East	-11.2785
215	-11.2793
_250	-11.2796
climb	-11.2797
oke	-11.2798
equivalent	-11.2798
experience	-11.2798
▁RFC	-11.2798
Festival	-11.2798
▁Length	-11.2798
▁From	-11.2798
miami	-11.2798
▁drove	-11.2798
▁Avg	-11.2798
Enrolment	-11.2798
▁Please	-11.2798
▁Masters	-11.2799
educational	-11.28
▁Island	-11.28
montreal	-11.28
98_1	-11.2801
ble	-11.2801
aught	-11.2801
Channel	-11.2802
raymond	-11.2803
ethnic	-11.2804
▁skipper	-11.2804
lname	-11.2805
timeslot	-11.2805
german	-11.2806
Q	-11.2806
▁Band	-11.2808
streak	-11.2809
eliminated	-11.2811
entered	-11.2811
official	-11.2812
percent	-11.2812
University	-11.2812
general	-11.2813
germany	-11.2814
▁1962	-11.2814
North	-11.2815
DR	-11.2815
airport	-11.2818
lady	-11.2821
▁Sun	-11.2821
06_2	-11.2827
▁1955	-11.2827
local	-11.2827
56_1	-11.283
55_2	-11.2833
6.7	-11.2833
▁+2	-11.2834
▁HA	-11.2836
▁Michigan	-11.2841
real	-11.2843
▁off	-11.2849
OR	-11.2854
▁li	-11.2857
▁flights	-11.286
▁standing	-11.2866
▁8.7	-11.2866
ili	-11.2871
▁agricultural	-11.2878
rett	-11.2878
dancer	-11.288
▁25"	-11.2885
73_1	-11.2889
▁transmission	-11.2892
01"	-11.2895
38_1	-11.2907
▁romaji	-11.2909
▁video	-11.2909
▁special	-11.291
▁bodyweight	-11.291
copa	-11.2915
cb	-11.2915
5.2	-11.292
▁fis	-11.2925
▁ships	-11.2925
▁colors	-11.2926
▁room	-11.2933
▁mill	-11.2936
eric	-11.294
31"	-11.294
▁preliminary	-11.2944
▁300	-11.2945
▁"10.	-11.2947
AD	-11.2951
▁figure	-11.2963
▁Staff	-11.2965
ord	-11.2968
_1990	-11.2976
▁el	-11.2976
▁composer	-11.2978
15"	-11.2981
▁kr	-11.2983
▁cust	-11.2995
Car	-11.3002
▁USA	-11.3002
▁chip	-11.3011
▁liberal	-11.3013
▁—	-11.3013
▁Georgia	-11.3014
▁female	-11.3014
jay	-11.3015
▁Po	-11.3019
▁Steve	-11.302
ort	-11.3022
▁Min	-11.3028
sent	-11.3029
▁industry	-11.303
▁temperature	-11.303
▁2003"	-11.3033
wind	-11.3036
CA	-11.3036
▁figures	-11.3046
rden	-11.3047
▁11"	-11.3052
pc	-11.306
comp	-11.3068
-12"	-11.3069
213	-11.3069
▁"14"	-11.307
coaster	-11.3085
hill	-11.3101
ryan	-11.3102
▁my	-11.3106
ence	-11.3109
30"	-11.3113
▁ac	-11.3124
▁chi	-11.3131
▁programming	-11.3136
▁Draw	-11.3141
_2562572_	-11.3144
▁Ed	-11.3146
▁8.4	-11.3148
▁languages	-11.3149
same	-11.315
▁concert	-11.3153
▁And	-11.3156
▁Sport	-11.3163
cle	-11.3168
transaction	-11.3171
▁End	-11.3177
9.8	-11.3182
tel	-11.3189
60_1	-11.3193
_1342233_	-11.3201
▁german	-11.3201
▁ride	-11.3209
DATA	-11.3214
Massachusetts	-11.3214
_26375386_2	-11.3214
installation	-11.3214
preliminaries	-11.3214
_16494599_	-11.3214
_2897457_	-11.3214
▁BET	-11.3214
cleveland	-11.3214
▁SCO	-11.3215
▁positions	-11.3216
▁NFL	-11.3216
manchester	-11.3217
▁cf	-11.3218
▁(2009)	-11.3219
▁postseason	-11.3221
▁raceway	-11.3221
62_2	-11.3221
▁traditional	-11.3224
▁1926	-11.3224
gr	-11.3227
robert	-11.3234
tors	-11.3235
represented	-11.3235
▁voted	-11.3238
credit	-11.324
shire	-11.3241
▁ferrari	-11.3241
Artist	-11.3242
sydney	-11.3243
PAR	-11.3245
Paul	-11.3245
wheel	-11.3245
route	-11.3246
freq	-11.3247
August	-11.3247
▁airlines	-11.3249
longitude	-11.3249
meetings	-11.3251
▁purpose	-11.3259
▁Employees	-11.3262
▁Wil	-11.3263
ret	-11.3267
playoffs	-11.327
▁lose	-11.3273
del	-11.3275
▁affected	-11.3277
▁passengers	-11.3277
22"	-11.3281
▁103	-11.3283
Jim	-11.3287
▁Second	-11.3295
▁scientist	-11.3295
▁Service	-11.3295
lp	-11.3295
▁Of	-11.3298
▁stars	-11.3299
AN	-11.3305
70_1	-11.3306
▁17"	-11.3306
▁"46	-11.3312
▁netflix	-11.3313
tory	-11.3322
▁Major	-11.3331
▁processor	-11.3331
fall	-11.3337
▁civil	-11.3343
under	-11.3343
▁feature	-11.3345
▁Per	-11.3346
▁plural	-11.335
LE	-11.3354
_262501	-11.3354
caps	-11.3355
BA	-11.3361
▁whi	-11.3365
▁internet	-11.3367
▁johnson	-11.337
96_1	-11.337
▁polling	-11.3378
ette	-11.3386
▁artists	-11.339
ui	-11.3392
tons	-11.3398
▁just	-11.3403
▁Aircraft	-11.3403
lation	-11.3408
_123	-11.3413
acc	-11.3415
▁innings	-11.3422
▁pl	-11.3427
▁solo	-11.3435
▁bye	-11.3438
▁TYPE	-11.3439
▁numbered	-11.3444
-17	-11.3444
ips	-11.3445
▁euro	-11.3448
_2562572_4	-11.3453
▁essendon	-11.3457
▁fitzroy	-11.3457
47_2	-11.3464
▁2012"	-11.3464
▁capita	-11.3466
CH	-11.3471
premiered	-11.3471
hang	-11.3476
▁"40	-11.3477
rik	-11.3487
▁fri	-11.3499
▁services	-11.351
▁freight	-11.3512
▁editor	-11.3512
▁Brown	-11.3513
lex	-11.3517
ata	-11.352
▁1959	-11.3524
_117	-11.3529
▁users	-11.3529
▁peter	-11.353
▁big	-11.3533
▁william	-11.3534
ras	-11.3546
▁te	-11.3554
cottish	-11.3556
▁sr	-11.3565
Los	-11.3566
▁War	-11.3572
269	-11.3576
▁perpetrator	-11.3579
acon	-11.358
burg	-11.358
.25	-11.358
135	-11.3581
passenger	-11.3581
▁je	-11.3597
page	-11.3597
ó	-11.3599
262	-11.3607
_236	-11.3607
ense	-11.3611
604	-11.3615
amen	-11.362
_292	-11.3625
zo	-11.3626
▁don	-11.3635
▁sea	-11.3635
▁golf	-11.3639
kim	-11.364
▁timeslot	-11.3642
ormula	-11.3645
ilo	-11.3647
_1341930_	-11.3649
hc	-11.3649
transcript	-11.3649
_1566852_	-11.3649
netherlands	-11.3649
scotland	-11.3649
singapore	-11.3649
wimbledon	-11.3649
▁FLIGHTS	-11.3649
▁TRANSACTIONS	-11.3649
houston	-11.3649
_1805191_	-11.3649
Genre	-11.3649
▁occupation	-11.3649
libertadores	-11.365
labor	-11.365
▁participants	-11.365
norway	-11.3651
▁"2-1"	-11.3651
▁problems	-11.3651
outstanding	-11.3652
▁driven	-11.3655
▁Dave	-11.3661
property	-11.3662
rose	-11.3662
Mac	-11.3665
kb	-11.3665
▁145	-11.3667
rome	-11.3672
▁2-0	-11.3673
_2011_	-11.3675
▁chicago	-11.3677
mc	-11.3678
road	-11.368
present	-11.3682
▁1940	-11.3684
▁0-1	-11.3685
vfl	-11.3686
nba	-11.3688
jerk	-11.369
back	-11.3693
launch	-11.3694
bowl	-11.3694
french	-11.3696
▁faculty	-11.3697
Course	-11.3697
target	-11.3697
premiere	-11.3698
tr	-11.3699
Bob	-11.3699
purse	-11.3699
major	-11.3699
▁Bay	-11.37
edition	-11.37
▁regional	-11.3705
month	-11.3708
react	-11.3711
fil	-11.3712
▁1957	-11.3712
▁Western	-11.3715
▁virtual	-11.3715
▁"37	-11.3715
▁features	-11.3721
▁wi	-11.3724
▁termin	-11.3725
lic	-11.3727
bie	-11.3728
▁lasted	-11.3729
▁washington	-11.3734
15_3	-11.3734
▁cd	-11.3736
gui	-11.3737
390	-11.3739
american	-11.3746
Fac	-11.3746
▁build	-11.375
▁indoor	-11.3752
chart	-11.3768
_258	-11.3769
▁residence	-11.3771
stars	-11.3775
viv	-11.3777
ND	-11.3777
▁paper	-11.378
▁architect	-11.3789
▁cinema	-11.379
▁victoria	-11.379
oe	-11.3791
▁flight	-11.3798
india	-11.3798
▁X	-11.38
uf	-11.3802
activity	-11.3803
▁shot	-11.381
_1216	-11.3828
▁German	-11.3842
▁senator	-11.3846
2009	-11.3851
▁160	-11.3852
shaw	-11.3853
▁LL	-11.3863
.85	-11.3866
125	-11.3869
▁judge	-11.387
▁directors	-11.387
tta	-11.387
▁australian	-11.387
ila	-11.3874
2)"	-11.3877
▁control	-11.3884
AM	-11.3885
▁Bill	-11.3892
fer	-11.3896
87_1	-11.3899
tko	-11.3903
Pa	-11.3904
div	-11.3916
▁1997"	-11.3919
▁thomas	-11.3922
_217	-11.3927
2003	-11.3936
igi	-11.3938
ora	-11.3939
28_1	-11.3946
ello	-11.3947
▁1999"	-11.3952
▁1998"	-11.3952
lens	-11.3963
71_1	-11.3964
▁"2009	-11.3972
426	-11.3983
625	-11.3984
▁Pos	-11.3986
▁29"	-11.399
▁151	-11.3992
mos	-11.3992
▁ya	-11.3999
sam	-11.4004
▁transaction	-11.4007
SC	-11.4009
▁introduced	-11.4018
,000"	-11.4024
▁Project	-11.4034
▁athletic	-11.4035
▁Ken	-11.4037
▁Jan	-11.4039
▁districts	-11.404
jean	-11.4043
arrivals	-11.4053
▁ke	-11.4063
mj	-11.4067
750	-11.4071
downs	-11.4073
data	-11.4073
hour	-11.4075
▁credit	-11.4076
ero	-11.408
ding	-11.4081
eda	-11.4087
gre	-11.4091
1)"	-11.4097
ual	-11.4097
carlo	-11.4097
malaysia	-11.4099
▁know	-11.4099
▁screen	-11.41
tack	-11.4101
_2679061_	-11.4101
Continent	-11.4104
Official	-11.4104
ceased	-11.4104
indianapolis	-11.4104
remaining	-11.4104
ssembled	-11.4104
▁Colorado	-11.4104
▁Difference	-11.4104
▁Junction	-11.4104
▁museum	-11.4104
identity	-11.4104
_2226817_	-11.4104
text	-11.4104
▁Rangers	-11.4104
▁Classification	-11.4104
bandmate	-11.4104
▁Classic	-11.4107
▁equal	-11.4108
accession	-11.411
▁($)	-11.4111
_11622	-11.4115
▁"195	-11.4115
▁real	-11.4115
▁beat	-11.4115
monthly	-11.4117
▁1943	-11.4117
hat	-11.412
_14903	-11.4122
▁vocal	-11.4123
ute	-11.4126
48_2	-11.4131
▁identifier	-11.4133
▁technician	-11.4133
15_1	-11.4135
geo	-11.4137
▁ps	-11.4137
▁18"	-11.4139
quipment	-11.4145
dis	-11.4146
ngc	-11.4147
▁Byes	-11.4147
▁9.1	-11.4148
▁Japanese	-11.4153
0,000	-11.4154
big	-11.4157
water	-11.4158
agent	-11.417
commercial	-11.4171
concert	-11.4171
ines	-11.4172
▁Performance	-11.4172
digital	-11.4173
individual	-11.4174
president	-11.4175
produced	-11.4175
Title	-11.4177
▁Ja	-11.4179
Mark	-11.418
▁ft	-11.418
regular	-11.4181
ere	-11.4181
bury	-11.4186
▁Studio	-11.4192
707_1	-11.4192
▁8.5	-11.4192
joe	-11.4195
cfl	-11.4197
gan	-11.42
▁little	-11.4202
reporters	-11.4205
wickets	-11.4207
itizenship	-11.4211
▁Detroit	-11.4211
▁basketball	-11.4211
▁wednesday	-11.4211
▁exhibition	-11.4212
▁President	-11.4212
▁"+1"	-11.4223
30?	-11.4228
▁lyricist	-11.4231
▁owned	-11.4231
_113	-11.4234
sburg	-11.4238
ces	-11.4251
▁Florida	-11.4251
ira	-11.4252
▁spain	-11.4257
mmer	-11.4259
▁102	-11.4259
23"	-11.4261
river	-11.4268
53_1	-11.427
even	-11.4275
oster	-11.428
called	-11.4285
pf	-11.4286
_3__	-11.4288
placed	-11.4288
▁va	-11.4289
mile	-11.4289
▁Kentucky	-11.429
▁Pennsylvania	-11.429
–20	-11.4292
▁Richard	-11.4293
6.0	-11.4298
▁William	-11.4299
fac	-11.4299
Le	-11.4301
tz	-11.4303
td	-11.4305
.1%"	-11.4307
▁George	-11.431
types	-11.4314
▁bowling	-11.4317
▁"*	-11.4319
▁termination	-11.4331
▁labour	-11.4331
formal	-11.4338
arrow	-11.4341
▁107	-11.4342
▁Day	-11.4342
▁villa	-11.4349
▁performed	-11.435
▁running	-11.4352
wal	-11.4353
api	-11.4355
tar	-11.4356
kbit	-11.4357
vice	-11.4358
▁italian	-11.4363
nne	-11.4369
▁Virginia	-11.437
▁direction	-11.4371
AL	-11.4371
▁9.4	-11.4376
_194	-11.4389
sis	-11.4389
▁registration	-11.439
audi	-11.4394
press	-11.4401
▁emp	-11.4411
ridge	-11.4415
arden	-11.4426
dog	-11.4428
slo	-11.444
▁Go	-11.444
signed	-11.4441
jon	-11.4444
05"	-11.4444
ock	-11.4444
▁Semi	-11.4447
dra	-11.4448
▁tonnes	-11.445
▁winter	-11.4458
ert	-11.4464
ture	-11.4464
▁output	-11.447
_2007	-11.4471
Ar	-11.4472
▁dec	-11.4473
Mi	-11.4477
▁4:	-11.4494
hal	-11.4495
_198	-11.4497
late	-11.4498
▁forward	-11.45
▁coast	-11.4501
▁"42	-11.4502
▁105	-11.452
bush	-11.4523
_147	-11.4529
▁agg	-11.4532
ile	-11.4532
▁Ford	-11.4535
ese	-11.4538
ault	-11.4545
lee	-11.455
▁hawthorn	-11.4551
▁140	-11.4553
reference	-11.4556
rna	-11.4565
▁include	-11.4573
▁occur	-11.4574
llen	-11.4575
electric	-11.4576
juncti	-11.4577
Article	-11.458
_14345690_	-11.458
ottawa	-11.458
_2781227_	-11.458
related	-11.458
broadway	-11.458
Arkansas	-11.458
▁rock	-11.458
▁Jazz	-11.458
coupon	-11.4581
▁poker	-11.4581
▁eagles	-11.4581
▁Rock	-11.4582
▁McCain	-11.4582
▁coverage	-11.4583
liga	-11.4585
deleted	-11.4586
destroyed	-11.4586
jordan	-11.4587
ppp	-11.4591
edo	-11.4593
▁1948	-11.4593
Peter	-11.4594
▁savings	-11.4598
ace	-11.4601
▁joe	-11.4606
drew	-11.4606
gary	-11.4612
four	-11.4616
giro	-11.4618
▁starting	-11.4621
cia	-11.4624
__2005_	-11.4628
▁Football	-11.4631
alfa	-11.4632
07_1	-11.4634
10_1	-11.4635
chin	-11.4643
▁Adelaide	-11.4652
▁French	-11.4652
▁discipline	-11.4652
▁patient	-11.4652
▁Sweden	-11.4652
sky	-11.4659
width	-11.4661
degree	-11.4667
supplier	-11.4669
treatment	-11.4669
▁without	-11.4669
introduced	-11.4671
european	-11.4671
Robert	-11.4671
programming	-11.4672
Company	-11.4672
▁Method	-11.4672
▁Maryland	-11.4673
▁oilers	-11.4673
-9"	-11.4674
annual	-11.4674
operator	-11.4676
fuel	-11.4677
60"	-11.4677
County	-11.4677
storm	-11.4677
League	-11.4677
_22815568_	-11.468
▁(8)	-11.4681
launched	-11.4681
presenter	-11.4685
manner	-11.4686
.0%"	-11.4692
6-2	-11.4693
▁Last	-11.4693
▁British	-11.4693
▁scoring	-11.4693
▁davis	-11.4693
020	-11.4696
▁(6)"	-11.4697
light	-11.47
▁Joe	-11.4705
minutes	-11.4707
contract	-11.4708
bn	-11.4709
308	-11.471
▁golden	-11.4711
▁Van	-11.4711
_1996	-11.4712
▁Minnesota	-11.4714
.6%	-11.4715
▁Gil	-11.472
%'	-11.4723
▁domestic	-11.4734
▁background	-11.4735
▁minor	-11.474
successors	-11.4749
_225	-11.4749
▁wheels	-11.4753
▁unaffected	-11.4755
▁113	-11.477
▁Wood	-11.4784
mass	-11.4788
vol	-11.4792
yard	-11.4793
6.4	-11.4795
▁tenure	-11.4797
LA	-11.4799
▁households	-11.4805
seconds	-11.4816
▁Far	-11.4819
138	-11.4821
▁Slam	-11.4832
▁contestants	-11.4845
paris	-11.4849
▁altitude	-11.486
Made	-11.4867
mate	-11.4867
▁Rob	-11.4868
▁211	-11.4877
▁Alex	-11.488
▁Bat	-11.4884
8–1	-11.4887
▁latin	-11.4892
lberto	-11.4892
▁teacher	-11.4895
odd	-11.4902
67_2	-11.4908
umb	-11.4915
rain	-11.4921
▁147	-11.4923
Bu	-11.4924
▁trans	-11.4928
adam	-11.4929
maria	-11.4941
thing	-11.4948
▁bronzes	-11.4949
284	-11.495
06"	-11.4951
_167	-11.4955
▁force	-11.4959
horn	-11.4961
5%	-11.4979
▁Pas	-11.4985
_2619	-11.5001
▁Pre	-11.5007
▁commercial	-11.5008
erie	-11.5011
▁mcg	-11.5014
eid	-11.5017
gor	-11.5023
.7%"	-11.5024
209	-11.5026
▁Album	-11.5027
▁Har	-11.5028
▁che	-11.5032
spect	-11.5037
una	-11.5038
▁placing	-11.5042
▁tickets	-11.5044
lang	-11.5044
biggest	-11.5059
fs	-11.5064
nar	-11.5065
_295	-11.5067
▁conv	-11.5071
Claim	-11.5072
allergy	-11.5077
browser	-11.5077
problem	-11.5077
stances	-11.5079
hydro	-11.508
Saturday	-11.508
_12828723_	-11.508
_13836704_	-11.508
_14752049_	-11.508
_26996293_	-11.508
_28498999_	-11.508
continent	-11.508
families	-11.508
retirement	-11.508
transliteration	-11.508
▁Britain	-11.508
▁NGC	-11.508
▁Orleans	-11.508
▁hockey	-11.508
wounded	-11.508
▁"6–3	-11.508
either	-11.508
▁Province	-11.508
Shipping	-11.508
▁conductor	-11.508
▁Sportsinfo	-11.508
▁lions	-11.508
elapsed	-11.508
▁occurred	-11.508
heffield	-11.508
▁furniture	-11.508
▁Dogs	-11.5081
▁Valley	-11.5081
▁1.1	-11.5081
▁jets	-11.5081
▁sacks	-11.5082
▁Flight	-11.5082
▁remark	-11.5082
comment	-11.5082
kevin	-11.5082
▁109	-11.5083
▁Matches	-11.5083
pictorials	-11.5086
viii	-11.5087
78_1	-11.5087
11_1	-11.509
He	-11.5091
Hispanic	-11.5092
▁golfer	-11.5093
▁1946	-11.5093
contested	-11.5095
ado	-11.5098
▁2-1	-11.5098
uderi	-11.5105
mont	-11.5107
▁213	-11.5107
▁9.5	-11.5112
carpet	-11.5113
▁rams	-11.5114
▁"17"	-11.5116
423	-11.5119
operational	-11.5121
▁1952	-11.5132
▁vers	-11.5135
▁zone	-11.5138
▁0.7	-11.5138
bl	-11.5139
▁Men	-11.5144
▁sets	-11.5145
▁Italy	-11.5156
▁elevated	-11.5156
▁journalist	-11.5156
▁Great	-11.5158
wall	-11.5158
zer	-11.5159
kW	-11.5161
ille	-11.5164
34_2	-11.5166
▁via	-11.5168
▁jackson	-11.5171
▁White	-11.5173
▁acc	-11.5176
▁alternate	-11.5177
▁facility	-11.5177
▁fatalities	-11.5177
▁created	-11.5177
▁worst	-11.5177
_2638	-11.5178
▁worldwide	-11.5178
dick	-11.5183
▁roller	-11.5185
▁An	-11.5186
▁"8.	-11.5187
03_2	-11.519
Hometown	-11.519
inhabitants	-11.5193
louis	-11.5195
_1991	-11.5196
union	-11.5196
teacher	-11.5196
205_1	-11.5197
output	-11.5197
challenge	-11.5199
example	-11.5199
▁Issue	-11.5199
▁virginia	-11.5199
▁political	-11.5199
▁reverse	-11.5199
▁Asian	-11.5199
▁thursday	-11.5199
texas	-11.5199
▁garden	-11.5201
snatch	-11.5201
Tony	-11.5201
June	-11.5204
▁Mil	-11.5204
callsign	-11.5208
singer	-11.5208
tyre	-11.5211
mascot	-11.5211
tourist	-11.5212
▁Buffalo	-11.5221
▁choice	-11.5223
bank	-11.5229
ended	-11.5229
▁channels	-11.5232
island	-11.5232
bridge	-11.5233
▁Je	-11.524
▁blank	-11.5243
▁abbreviation	-11.5243
▁River	-11.5244
released	-11.5248
IS	-11.5249
_197	-11.5249
▁Hor	-11.5258
▁dvd	-11.5265
▁Indiana	-11.5265
▁Greg	-11.527
sé	-11.5273
▁Kim	-11.5274
wc	-11.5275
Mo	-11.5277
45"	-11.5283
In	-11.5285
▁social	-11.5286
_116	-11.5291
▁membership	-11.5293
mountains	-11.5298
__2000_	-11.5302
▁function	-11.5308
▁panel	-11.5309
onnie	-11.5309
dc	-11.5311
stable	-11.5314
_11734041_1	-11.5315
▁Dec	-11.5316
card	-11.5334
qua	-11.5337
_242	-11.5349
medal	-11.5349
▁working	-11.535
058	-11.5351
ap	-11.5357
▁Bre	-11.536
▁0.4	-11.5366
disc	-11.5372
NO	-11.5376
▁box	-11.5377
▁films	-11.5378
0000000000000	-11.5379
colors	-11.5379
kicker	-11.538
▁characteristic	-11.5382
action	-11.5389
mini	-11.5394
▁9.6	-11.5396
▁queen	-11.5397
▁summer	-11.5403
21_2	-11.5405
eli	-11.5407
33_2	-11.541
▁phil	-11.5411
pay	-11.5419
alca	-11.5421
500"	-11.5422
▁208	-11.5433
elect	-11.5436
▁ansi	-11.5449
support	-11.5451
sey	-11.5454
OS	-11.5457
▁colleges	-11.5481
mic	-11.5483
▁Comp	-11.5484
02"	-11.5485
tha	-11.5498
▁treatment	-11.5508
▁Tim	-11.5512
wich	-11.5518
17"	-11.5519
▁models	-11.5534
ria	-11.5535
▁present	-11.5535
yer	-11.5536
Author	-11.5537
vil	-11.5543
▁Ne	-11.5544
scorers	-11.5551
427	-11.5554
▁170	-11.5559
sea	-11.5561
emi	-11.5566
▁Bur	-11.5566
mari	-11.557
christian	-11.5573
view	-11.5581
▁same	-11.5586
_11677691_1	-11.5587
france	-11.5587
rip	-11.5588
▁9.2	-11.5588
loses	-11.5593
▁weigh	-11.5598
▁ethnic	-11.5598
▁korea	-11.5601
print	-11.5603
Payment	-11.5603
cardinal	-11.5604
chester	-11.5604
ymnast	-11.5606
Agents	-11.5606
RECORD	-11.5606
_26986076_	-11.5606
_28677723_	-11.5606
safety	-11.5606
▁Captain	-11.5606
▁RESULT	-11.5606
renewable	-11.5606
▁Raiders	-11.5606
anskrit	-11.5606
louisiana	-11.5606
nominal	-11.5606
▁"4–6	-11.5606
▁Actor	-11.5606
Senior	-11.5606
▁Third	-11.5606
▁registered	-11.5606
stefan	-11.5607
_232429	-11.5607
ascot	-11.5607
▁industrial	-11.5607
▁cardinalatial	-11.5607
arkansas	-11.5607
▁binibining	-11.5607
ury	-11.5607
denver	-11.5607
▁callback	-11.5608
_20765	-11.5608
▁rally	-11.5608
Pilot	-11.5609
▁Garden	-11.5609
▁Bridge	-11.5609
▁Qual	-11.5609
▁never	-11.561
▁miller	-11.5611
▁enrolled	-11.5611
Spring	-11.5611
credentials	-11.5612
history	-11.5613
▁pets	-11.5614
6%"	-11.5615
orio	-11.5616
tallest	-11.5616
fox	-11.5619
▁floor	-11.562
xx	-11.5623
births	-11.5625
▁Bush	-11.5626
▁Hall	-11.5626
▁saw	-11.5629
▁'%	-11.5632
▁288	-11.5632
_1950	-11.5634
▁construct	-11.5637
lotus	-11.5639
settlement	-11.5639
▁1939	-11.5644
valid	-11.5651
_28138035_	-11.5652
grt	-11.5652
▁Was	-11.5653
vey	-11.5657
ura	-11.5657
gw	-11.5658
▁Election	-11.5663
activities	-11.5668
ón	-11.5668
.3%	-11.567
▁selected	-11.5671
Rick	-11.5672
trade	-11.5675
▁chris	-11.5675
replay	-11.5677
throws	-11.5677
▁(9)"	-11.5681
liam	-11.5682
mat	-11.5684
▁famous	-11.5686
▁married	-11.5686
▁Conference	-11.5686
▁barrel	-11.5687
▁known	-11.5692
ratt	-11.57
udy	-11.5712
dal	-11.5713
nce	-11.5713
sco	-11.5715
cold	-11.5723
▁found	-11.5724
lov	-11.5724
elle	-11.5727
▁112	-11.5729
▁replacement	-11.5732
▁Cleveland	-11.5732
▁Russia	-11.5733
▁junction	-11.5735
carlos	-11.5738
friend	-11.5745
maserati	-11.5746
claim	-11.5747
Customer	-11.575
▁display	-11.5751
religion	-11.5754
tonnes	-11.5755
James	-11.5755
▁audition	-11.5755
withdrawn	-11.5756
▁memorial	-11.5756
fleet	-11.5757
▁"+2	-11.5757
aircraft	-11.5758
couple	-11.5758
winter	-11.5759
forward	-11.5759
constituency	-11.5759
administrative	-11.5759
established	-11.576
Attendance	-11.576
Team	-11.5761
▁plant	-11.5761
Year	-11.5762
median	-11.5764
tte	-11.5765
email	-11.5766
factor	-11.5766
arena	-11.5768
Song	-11.5769
make	-11.5773
▁illinois	-11.5778
both	-11.5778
▁China	-11.5778
sponsored	-11.5779
roc	-11.5782
person	-11.579
nni	-11.5798
▁scorers	-11.5799
wi	-11.58
▁dis	-11.5803
mit	-11.5804
▁camera	-11.5804
Tu	-11.5807
voy	-11.5808
55"	-11.5818
oul	-11.582
▁ice	-11.5821
▁francisco	-11.5824
▁app	-11.5826
rez	-11.5832
hase	-11.5836
▁manufacture	-11.5836
adults	-11.5838
▁143	-11.584
Pos	-11.5841
▁148	-11.5842
hampton	-11.5844
rb	-11.5845
▁pressure	-11.5848
▁London	-11.5848
▁info	-11.5851
184	-11.5852
MI	-11.5853
▁conf	-11.5853
▁issued	-11.5856
▁fire	-11.5857
809	-11.5861
▁bt	-11.5869
▁Order	-11.5871
_11677100_1	-11.5873
nell	-11.5883
loa	-11.5886
_1735	-11.5893
72_2	-11.5895
.38	-11.5896
▁available	-11.5897
▁kg	-11.5899
▁3.5	-11.59
▁600	-11.5905
▁reign	-11.5907
ated	-11.5908
iro	-11.5909
▁los	-11.5911
dance	-11.5911
▁collingwood	-11.592
▁profit	-11.592
▁Clay	-11.5921
roma	-11.5924
fb	-11.5927
personal	-11.5951
▁380	-11.5961
BR	-11.5961
Dan	-11.5966
115	-11.5968
▁Matt	-11.597
94_1	-11.597
▁50.	-11.5978
▁albert	-11.5982
201	-11.5982
rap	-11.5986
▁security	-11.5988
▁borough	-11.5994
▁overs	-11.5995
▁SM	-11.5995
cted	-11.5996
more	-11.5997
▁hot	-11.5998
▁cu	-11.6003
▁stages	-11.601
gf	-11.6011
8.0	-11.6015
hm	-11.6016
offs	-11.6024
8_4	-11.6034
wy	-11.6035
cons	-11.6037
225	-11.6045
mf	-11.6049
engineer	-11.605
uri	-11.6053
zh	-11.6055
▁sky	-11.6057
▁supplier	-11.6059
▁FL	-11.6064
▁By	-11.6066
pol	-11.6066
_19744915_1	-11.6067
hale	-11.6068
08_1	-11.6074
foreign	-11.6078
▁138	-11.6081
▁fu	-11.6081
ordan	-11.6084
▁light	-11.6089
168	-11.6091
69_2	-11.6095
ump	-11.6097
illy	-11.6098
145	-11.6102
hus	-11.6104
▁Kar	-11.6105
▁"20"	-11.6107
agg	-11.611
ory	-11.6114
▁180	-11.6115
▁glen	-11.6128
take	-11.613
_1341690_	-11.6133
▁court	-11.6138
▁1989"	-11.6143
7-2	-11.6151
▁128	-11.6151
▁televote	-11.6152
-13"	-11.6152
trim	-11.6155
onstructor	-11.6156
▁enroll	-11.6157
Document	-11.6159
▁House	-11.6159
Address	-11.616
_1277350_	-11.6162
_2886617_	-11.6162
brisbane	-11.6162
expectancy	-11.6162
inauguration	-11.6162
switzerland	-11.6162
symbol	-11.6162
▁Athlete	-11.6162
▁Diego	-11.6162
▁Taylor	-11.6162
▁stewart	-11.6162
Artwork	-11.6162
mobile	-11.6162
platinum	-11.6162
statistic	-11.6162
▁"1-0"	-11.6162
▁Return	-11.6162
_1213511_	-11.6162
Eastern	-11.6162
▁diego	-11.6162
research	-11.6162
▁Municipality	-11.6162
generation	-11.6162
▁hCards	-11.6162
compatible	-11.6162
dallas	-11.6162
debt	-11.6162
▁debate	-11.6163
prime	-11.6163
register	-11.6163
Oliver	-11.6163
bandwidth	-11.6164
▁sound	-11.6165
jeff	-11.6165
calendar	-11.6166
▁voters	-11.6166
▁LAR	-11.6166
quad	-11.6166
_270	-11.6167
__2011_12	-11.6167
foundation	-11.6168
▁Treatments	-11.6168
▁Stage	-11.6168
stories	-11.617
▁cable	-11.617
▁Fred	-11.617
005	-11.6171
▁tower	-11.6173
Shop	-11.6173
▁5–7	-11.6173
▁acquisition	-11.6176
▁receiver	-11.6177
▁accolade	-11.6182
_148	-11.6183
▁6-2	-11.6184
231	-11.6189
hon	-11.6192
▁finishes	-11.6199
0_3	-11.62
▁moves	-11.62
▁ni	-11.6201
ofsted	-11.6205
IC	-11.6206
punt	-11.6208
borough	-11.6209
hd	-11.6211
ggs	-11.6212
among	-11.6222
▁wk	-11.6222
▁unknown	-11.6226
▁richmond	-11.6228
▁270	-11.6229
▁Media	-11.6232
▁Ground	-11.6233
_2417	-11.6241
runners	-11.6246
mario	-11.6246
▁accreditation	-11.6247
▁copies	-11.6247
▁wanderers	-11.6247
wick	-11.625
thai	-11.6254
.47	-11.6256
▁110	-11.6259
471_1	-11.6261
▁Gar	-11.6261
ante	-11.6261
▁core	-11.627
profit	-11.627
▁arranger	-11.6271
▁Ohio	-11.6271
▁undecided	-11.6271
▁Central	-11.6271
william	-11.6271
▁frame	-11.6271
▁Centre	-11.6271
▁Teacher	-11.6271
uci	-11.6272
female	-11.6273
america	-11.6274
▁isbn	-11.6275
var	-11.6278
tade	-11.6279
eat	-11.628
live	-11.6282
▁Italian	-11.6295
▁middle	-11.6295
rew	-11.6296
▁Gain	-11.6298
▁3-2	-11.6299
olympic	-11.6304
iba	-11.631
▁Miami	-11.6319
▁operating	-11.6319
▁dominant	-11.6319
_2633	-11.6321
▁europe	-11.6322
▁honda	-11.6323
012	-11.6324
▁information	-11.6325
▁wicket	-11.6326
▁marriage	-11.6333
▁(8)"	-11.6334
professional	-11.6336
great	-11.6337
Steve	-11.6338
italy	-11.6338
security	-11.6339
rton	-11.634
Bill	-11.634
voter	-11.634
freight	-11.6341
george	-11.6342
Charles	-11.6343
jason	-11.6343
editor	-11.6343
memory	-11.6343
trophy	-11.6343
▁bullet	-11.6344
minister	-11.6345
Status	-11.6345
life	-11.6345
publication	-11.6346
jersey	-11.6346
primary	-11.6347
nominee	-11.6347
▁shell	-11.6348
Number	-11.6348
fourth	-11.6348
pixels	-11.6349
_11545282_	-11.6349
brand	-11.6349
West	-11.6352
▁olympic	-11.6357
awarded	-11.6362
Top	-11.6363
tackle	-11.6364
▁news	-11.6371
▁milan	-11.6371
Non	-11.6376
cept	-11.6377
step	-11.6378
57_1	-11.6379
simon	-11.6382
blocks	-11.6386
most	-11.6388
lene	-11.639
▁attribute	-11.6393
026	-11.6393
▁movies	-11.6394
▁reaction	-11.6397
letters	-11.6397
seat	-11.6404
Cross	-11.6405
▁kick	-11.6409
37_2	-11.6412
▁section	-11.6416
▁rower	-11.6419
▁Representative	-11.6442
▁failures	-11.6442
▁geelong	-11.6446
▁claim	-11.6455
949	-11.6456
plan	-11.6459
▁tourism	-11.6467
▁community	-11.6467
_274	-11.6475
spec	-11.6477
3917	-11.6483
wen	-11.6486
320	-11.6487
▁159	-11.6491
12_2	-11.6498
▁jo	-11.6511
fra	-11.6512
mus	-11.6513
▁brm	-11.6513
ardi	-11.6513
▁females	-11.6514
ark	-11.6515
▁incident	-11.6516
▁Customer	-11.6522
▁ep	-11.6528
▁titled	-11.6529
ATE	-11.6532
▁"+1	-11.6535
2008	-11.6541
▁accident	-11.6541
▁accelerator	-11.6541
Will	-11.6551
▁professors	-11.6553
_11545282_1	-11.6555
LINE	-11.6557
▁1–6	-11.6562
321	-11.6568
▁137	-11.6573
nam	-11.6601
▁Air	-11.6609
Yes	-11.6611
_181	-11.6614
▁parent	-11.6615
▁Sea	-11.6618
▁6–2"	-11.6626
75_2	-11.6627
▁"24"	-11.6635
103_1	-11.6636
▁tourist	-11.664
▁1996"	-11.6653
phil	-11.6667
7-3	-11.6669
colour	-11.667
ame	-11.6672
0)"	-11.6674
▁Champion	-11.668
▁210	-11.6695
▁Pole	-11.6695
sim	-11.6705
tics	-11.6715
bro	-11.6715
AGE	-11.6722
inch	-11.6725
▁Friend	-11.6727
.9%"	-11.6729
_2005	-11.6733
▁5000	-11.6736
▁VOT	-11.6739
ified	-11.6742
limit	-11.6748
_1341577_	-11.6748
Department	-11.675
metropolitan	-11.675
Public	-11.675
_10236830_	-11.675
_11964047_	-11.675
_17288825_	-11.675
_29141354_	-11.675
barcelona	-11.675
cincinnati	-11.675
investment	-11.675
moscow	-11.675
ordinary	-11.675
winnipeg	-11.675
▁Carlton	-11.675
▁Extra	-11.675
▁Rebounds	-11.675
▁Version	-11.675
▁orleans	-11.675
▁patriots	-11.675
History	-11.675
_23286158_	-11.675
_27721131_	-11.675
_27755603_	-11.675
featuring	-11.675
▁"2-0"	-11.675
▁Network	-11.675
▁Davis	-11.675
_1682026_	-11.675
federal	-11.675
▁AIR	-11.675
doctor	-11.675
citation	-11.675
▁freestyle	-11.6751
▁webcast	-11.6751
▁solar	-11.6751
▁seans	-11.6751
_28715942_	-11.6751
▁"3-0"	-11.6751
future	-11.6752
▁Korea	-11.6752
iowa	-11.6752
▁Ship	-11.6752
▁Miller	-11.6752
malayalam	-11.6753
interaction	-11.6753
1970	-11.6753
wayne	-11.6753
pitch	-11.6753
argentina	-11.6754
▁Kings	-11.6755
▁Kerry	-11.6756
sack	-11.6757
cosponsored	-11.6757
laska	-11.6758
▁Role	-11.6761
recap	-11.6762
technical	-11.6763
preserved	-11.6763
▁Love	-11.6765
▁Mag	-11.6772
▁tally	-11.6772
malay	-11.6773
Maker	-11.6774
detention	-11.6776
124_1	-11.6777
returning	-11.6778
RAM	-11.6779
▁fans	-11.678
cash	-11.678
_2613	-11.6783
_228973_	-11.6786
branches	-11.6788
check	-11.6788
▁har	-11.6788
tti	-11.6788
▁Austria	-11.6789
billions	-11.679
Patrick	-11.6792
▁3000	-11.6792
▁device	-11.6796
hot	-11.6797
artoon	-11.6797
▁sold	-11.6798
mins	-11.6801
kur	-11.6802
bre	-11.6804
▁appearance	-11.6804
ssen	-11.6807
▁Lap	-11.6809
hn	-11.6814
▁congress	-11.6814
▁Southern	-11.6814
analysts	-11.6815
uesday	-11.6819
.9%	-11.6823
makers	-11.683
Di	-11.683
▁0.6	-11.683
▁2013"	-11.6833
▁Cast	-11.6835
▁athletics	-11.684
▁Companies	-11.684
▁elevator	-11.684
gpu	-11.6843
▁visited	-11.6844
91_1	-11.6845
3_5	-11.6847
bear	-11.6847
403	-11.6849
▁birthdate	-11.6852
▁rooms	-11.6853
▁"2012"	-11.6854
belle	-11.6855
hart	-11.6864
▁return	-11.6865
▁measure	-11.6865
Pier	-11.6868
igh	-11.6868
▁trofeo	-11.6868
▁115	-11.6873
▁UN	-11.6874
gloss	-11.6879
▁Port	-11.6882
villages	-11.689
▁Brazil	-11.6892
ablo	-11.6904
264	-11.6905
_120	-11.6905
_1992	-11.6906
20_2	-11.6917
480	-11.6917
▁tennis	-11.6918
marriage	-11.6921
ities	-11.6922
▁Employee	-11.6924
▁baron	-11.6927
elena	-11.6928
uki	-11.6931
pt	-11.6932
▁30"	-11.6936
xa	-11.6938
▁commission	-11.6939
bon	-11.6943
_266	-11.6947
▁past	-11.6953
▁case	-11.6954
profiles	-11.6955
yamaha	-11.696
energy	-11.696
rence	-11.6961
ireland	-11.6962
charles	-11.6962
southern	-11.6962
accident	-11.6963
commander	-11.6964
accelerator	-11.6965
british	-11.6967
california	-11.6968
Jeff	-11.6968
royal	-11.6968
kickoff	-11.6969
▁Allergy	-11.697
submission	-11.697
jockey	-11.6972
countries	-11.6973
bbc	-11.6975
▁"32	-11.6976
branding	-11.6976
jun	-11.6978
completion	-11.6979
▁Jose	-11.6981
▁(6)	-11.6983
▁love	-11.6983
City	-11.6984
scott	-11.6984
construction	-11.6984
commissioned	-11.6986
rig	-11.6986
terry	-11.6986
▁3.0	-11.6987
(18	-11.6987
28_2	-11.6989
anderson	-11.6994
dium	-11.6994
▁DE	-11.6995
▁Kansas	-11.6996
ista	-11.6996
▁cultural	-11.6996
▁tamil	-11.7
took	-11.7004
▁1993"	-11.7004
▁1992"	-11.7005
▁Gre	-11.7008
errick	-11.7009
started	-11.701
▁mexico	-11.7022
▁boston	-11.7027
uff	-11.703
▁hai	-11.703
▁aspect	-11.7033
christ	-11.7038
▁nor	-11.7042
▁pitcher	-11.7048
▁grids	-11.7054
eight	-11.7056
hours	-11.7062
yan	-11.7062
_155	-11.7069
59_2	-11.7069
▁payload	-11.7074
▁richard	-11.7074
chu	-11.7079
cet	-11.708
ardo	-11.7083
▁currently	-11.7085
▁1942	-11.7089
▁modern	-11.7102
▁good	-11.7102
▁Heat	-11.7111
ound	-11.7113
▁130	-11.7115
▁pens	-11.7119
▁iii	-11.7121
rnd	-11.7124
CI	-11.7132
golden	-11.7133
▁195	-11.7148
91_2	-11.715
▁southern	-11.7154
▁commander	-11.7154
cancell	-11.7155
▁platforms	-11.7158
vy	-11.7162
▁charles	-11.7163
▁Deci	-11.7166
coed	-11.7167
sara	-11.7173
▁Albert	-11.7177
pga	-11.7187
▁hall	-11.7194
▁river	-11.7208
5_4	-11.7213
310	-11.7214
▁arm	-11.7215
mich	-11.7216
_296	-11.7218
axis	-11.723
_2562572_5	-11.7232
▁wood	-11.7235
68_2	-11.7235
ansi	-11.7236
▁127	-11.7236
maker	-11.7238
sian	-11.7243
jar	-11.7244
atp	-11.7254
▁european	-11.7263
_237	-11.7266
IT	-11.7272
▁Lin	-11.7274
▁"21"	-11.7276
stra	-11.7282
▁142	-11.7292
aud	-11.7296
▁23"	-11.7299
▁Tiger	-11.7306
analyst	-11.7307
egment	-11.7308
▁Bowl	-11.731
▁108	-11.7314
latin	-11.7317
▁hosts	-11.7324
nature	-11.7327
ports	-11.7327
gel	-11.7329
see	-11.7338
_2491	-11.7342
hall	-11.7344
semi	-11.7352
▁6.0	-11.7354
▁Miss	-11.7358
eo	-11.736
▁FM	-11.7363
▁Channel	-11.7369
aAAA	-11.7375
Charlotte	-11.7375
Description	-11.7375
Platform	-11.7375
_13564637_	-11.7375
_14342592_	-11.7375
_17120964_	-11.7375
_23575917_	-11.7375
_2409041_	-11.7375
_27293285_	-11.7375
_28846752_	-11.7375
austria	-11.7375
communist	-11.7375
conmebol	-11.7375
explorer	-11.7375
immigrants	-11.7375
liverpool	-11.7375
lizabeth	-11.7375
spectators	-11.7375
turnout	-11.7375
▁CHARACTERISTICS	-11.7375
▁Chiefs	-11.7375
▁Hawks	-11.7375
▁Kilda	-11.7375
▁Morris	-11.7375
▁Socialist	-11.7375
▁TRACK	-11.7375
▁Transfer	-11.7375
▁Wednesday	-11.7375
Matthew	-11.7375
penalties	-11.7375
prefix	-11.7375
unanimous	-11.7375
▁Norway	-11.7375
Investor	-11.7375
▁packers	-11.7375
orwegian	-11.7375
▁Drama	-11.7375
▁Performer	-11.7375
▁artwork	-11.7375
▁valley	-11.7375
opinion	-11.7375
▁integrated	-11.7375
straight	-11.7375
Bookings	-11.7375
▁hanja	-11.7375
children	-11.7375
▁Crowd	-11.7375
▁downstream	-11.7375
▁viewership	-11.7375
_2468961_	-11.7375
▁presentation	-11.7376
▁prefecture	-11.7376
▁Euro	-11.7376
▁soap	-11.7376
denmark	-11.7376
▁oldest	-11.7376
▁Financial	-11.7376
▁panthers	-11.7376
uited	-11.7376
▁headphone	-11.7376
▁Winter	-11.7377
spelling	-11.7378
▁"2004"	-11.7378
▁beach	-11.7378
expenditure	-11.7379
▁saints	-11.7379
inches	-11.7381
faced	-11.7382
▁multi	-11.7382
▁jose	-11.7383
▁Big	-11.7384
Room	-11.7384
khz	-11.7385
weapon	-11.7385
Trans	-11.7387
▁1.8	-11.7388
-04-	-11.7388
coding	-11.7389
hull	-11.7393
thousands	-11.7395
plyf	-11.7396
Finalist	-11.7396
_22509	-11.7397
▁war	-11.7399
poland	-11.7403
pont	-11.7403
▁Assists	-11.7404
slalom	-11.7404
ango	-11.7404
▁france	-11.7407
bids	-11.7408
▁Baltimore	-11.7417
_301206	-11.7417
roomName	-11.7418
▁8.2	-11.742
hiro	-11.7421
marco	-11.7422
tl	-11.7423
_177	-11.7429
▁degrees	-11.7431
sector	-11.7431
_1342218_	-11.7432
13618	-11.7433
azar	-11.7435
Vote	-11.7437
▁"2001	-11.7438
An	-11.7439
▁9.7	-11.7443
▁Columbia	-11.7444
▁Enrollment	-11.7444
▁Honda	-11.7444
▁Industry	-11.7444
itv	-11.7446
_136	-11.7447
kaz	-11.7447
rape	-11.7448
_2711	-11.7448
▁wing	-11.7451
ddie	-11.7455
_141	-11.7456
alma	-11.746
dditional	-11.7461
520	-11.7464
wade	-11.7466
ander	-11.7468
▁Days	-11.7469
▁vocals	-11.7471
▁POSITION	-11.7471
▁quarterfinals	-11.7471
others	-11.7474
particle	-11.7474
done	-11.748
▁4.5	-11.748
Sales	-11.7486
test	-11.7488
▁jun	-11.749
cents	-11.7492
▁mor	-11.7494
▁(10)"	-11.7494
56_3	-11.7495
▁Mexico	-11.7499
▁Montreal	-11.7499
▁Orlando	-11.7499
▁utah	-11.7499
▁oberliga	-11.7499
▁Ya	-11.75
▁tues	-11.7502
▁Qu	-11.7504
.6%"	-11.7505
dec	-11.7506
▁rpm	-11.7507
▁girl	-11.751
▁playlist	-11.7513
▁297	-11.7515
▁abbr	-11.7516
▁kings	-11.7521
1_4	-11.7525
▁economy	-11.7526
assigned	-11.7527
▁drama	-11.7527
▁Ann	-11.7537
rear	-11.754
▁taken	-11.7542
rai	-11.7543
_1939	-11.7545
▁Try	-11.7551
▁Gui	-11.7552
▁shooter	-11.7554
▁sixth	-11.7554
_1463	-11.7555
▁hire	-11.7566
_1893	-11.7567
Event	-11.7569
▁down	-11.7573
▁183	-11.7578
▁government	-11.7582
▁closed	-11.7584
86_4	-11.7589
▁poor	-11.7591
▁Reg	-11.7593
▁cancel	-11.76
aron	-11.7602
_2534	-11.7602
mid	-11.7605
▁turbo	-11.7609
▁human	-11.7609
▁routes	-11.7615
▁II	-11.7621
lit	-11.7621
perfect	-11.7626
147	-11.7627
atlanta	-11.7627
Restaurant	-11.7628
buffalo	-11.7628
incident	-11.763
summer	-11.7631
thomas	-11.7632
georgia	-11.7633
registration	-11.7633
florida	-11.7634
obama	-11.7634
Group	-11.7635
Washington	-11.7635
mccain	-11.7635
volume	-11.7636
socket	-11.7636
Scott	-11.7636
festival	-11.7637
Matt	-11.7637
qualifying	-11.7637
▁barangay	-11.7638
▁canadian	-11.7639
serial	-11.7639
UK	-11.764
visiting	-11.764
Total	-11.7641
proto	-11.7642
show	-11.7643
moving	-11.7644
3%	-11.7645
pada	-11.7646
▁enzyme	-11.7649
Tim	-11.7649
Age	-11.7654
▁Maria	-11.766
▁Fe	-11.7662
▁antonio	-11.7665
▁Source	-11.7665
▁Daniel	-11.7665
queen	-11.7666
bars	-11.7668
ars	-11.7668
_21436373_	-11.7669
▁clock	-11.767
hans	-11.767
▁Land	-11.7673
▁Jean	-11.7674
mbar	-11.7675
df	-11.7676
501	-11.7676
ending	-11.7677
martin	-11.7678
_14342210_1	-11.7684
▁act	-11.7687
pan	-11.7691
▁Houston	-11.7693
▁III	-11.7695
▁sch	-11.7706
.5%	-11.771
_25042332_2	-11.771
▁Don	-11.7711
▁stat	-11.7714
▁pen	-11.7716
▁fcc	-11.7718
▁3-0	-11.772
▁units	-11.773
__2011___	-11.7734
zip	-11.7737
uni	-11.7746
▁airing	-11.7747
▁trains	-11.7748
hong	-11.7751
040	-11.7754
243	-11.7754
▁cups	-11.7756
ral	-11.7765
218	-11.7771
La	-11.7771
▁Restaurant	-11.7778
▁buffalo	-11.7778
arch	-11.7779
_1341522_	-11.778
1935	-11.7787
▁mike	-11.7788
▁1935	-11.7788
▁(1)"	-11.779
▁georgia	-11.7793
▁support	-11.78
tree	-11.7801
_2803	-11.781
fr	-11.7814
5_3	-11.7817
evi	-11.7818
▁gar	-11.7834
▁operation	-11.7846
▁104	-11.7855
lli	-11.7858
▁NO	-11.7861
1937	-11.7868
▁(2)	-11.7871
oi	-11.788
▁68-	-11.7899
inst	-11.7899
stick	-11.7903
morri	-11.7913
Ha	-11.7917
▁note	-11.7924
bits	-11.7925
db	-11.7925
ona	-11.7925
.4%"	-11.7933
▁will	-11.7948
_2014	-11.7949
_228	-11.7952
▁Gi	-11.7954
▁155	-11.7975
stephen	-11.7982
enson	-11.7984
rav	-11.7992
▁lp	-11.8011
▁Za	-11.8016
40_1	-11.8019
fair	-11.8022
▁Events	-11.8022
older	-11.8028
▁visit	-11.8031
▁direct	-11.8033
▁1.4	-11.8033
ntrant	-11.8034
▁complete	-11.8035
▁appear	-11.8038
kilometer	-11.8039
runswick	-11.8039
▁roman	-11.804
Univers	-11.8041
zodiac	-11.8042
Attribute	-11.8042
Building	-11.8042
Oklahoma	-11.8042
_10470082_	-11.8042
_11964154_	-11.8042
_12834315_	-11.8042
_14058433_	-11.8042
_23248940_	-11.8042
_23465864_	-11.8042
_24399615_	-11.8042
_2818164_	-11.8042
_2840500_	-11.8042
administration	-11.8042
exercise	-11.8042
institute	-11.8042
linebacker	-11.8042
natural	-11.8042
▁Grizzlies	-11.8042
▁NUMBER	-11.8042
▁Prize	-11.8042
▁Radio	-11.8042
▁ballarat	-11.8042
▁britain	-11.8042
▁ensemble	-11.8042
▁goalkeeper	-11.8042
▁upstream	-11.8042
_27734286_	-11.8042
brabham	-11.8042
pacific	-11.8042
universe	-11.8042
▁Devils	-11.8042
▁Watson	-11.8042
▁alliance	-11.8042
▁palace	-11.8042
Founded	-11.8042
murray	-11.8042
bayern	-11.8042
pierre	-11.8042
toyota	-11.8042
▁Free	-11.8042
▁rovers	-11.8042
madrid	-11.8042
possible	-11.8042
▁"5:00"	-11.8042
▁Royal	-11.8042
Phillip	-11.8042
_26919_	-11.8042
alexander	-11.8042
_28211	-11.8042
_20764	-11.8042
▁image	-11.8042
Guard	-11.8042
tampa	-11.8042
▁measurement	-11.8042
▁Union	-11.8042
▁arabic	-11.8042
▁photos	-11.8043
▁indiana	-11.8043
atsmen	-11.8043
MENT	-11.8043
▁jump	-11.8043
defense	-11.8043
▁monday	-11.8043
▁raiders	-11.8043
▁leave	-11.8043
required	-11.8043
analog	-11.8043
Alexander	-11.8044
father	-11.8044
leeds	-11.8044
▁islanders	-11.8044
▁"4-1"	-11.8044
complement	-11.8045
▁singh	-11.8045
compound	-11.8045
▁Claims	-11.8045
evaluation	-11.8047
▁estimated	-11.8047
jonathan	-11.8047
bird	-11.8048
▁tigers	-11.8048
▁"3–6	-11.8048
▁Perth	-11.8049
hurricanes	-11.8049
kovi	-11.8049
▁lms	-11.805
exited	-11.805
Linda	-11.8052
chrome	-11.8054
crystal	-11.8054
▁Report	-11.8057
608_2	-11.8057
Brad	-11.8059
lug	-11.8061
patent	-11.8062
▁1944	-11.8064
relation	-11.8064
finland	-11.8065
Color	-11.8068
▁Law	-11.8069
_23619	-11.8069
▁Peak	-11.807
▁Glen	-11.807
13_2	-11.8072
049	-11.8073
_1930	-11.8074
uru	-11.8074
nordic	-11.8075
borg	-11.8082
avi	-11.8083
▁136	-11.8086
▁bruins	-11.8086
19_3	-11.8087
login	-11.8089
▁circu	-11.8093
21352	-11.8094
▁9.3	-11.8098
_2503	-11.8107
ED	-11.8108
Jo	-11.8111
gue	-11.8111
▁semifinals	-11.8113
▁Builder	-11.8115
▁penalty	-11.8115
▁singular	-11.8115
▁Manchester	-11.8116
Engineer	-11.8116
▁Tournaments	-11.8119
Left	-11.812
▁(24)	-11.8121
_1342359_	-11.8122
▁Poles	-11.8123
▁Host	-11.8128
▁(20)	-11.8129
Philip	-11.8134
Highest	-11.8141
monte	-11.8142
▁democrat	-11.8143
▁household	-11.8144
▁swimming	-11.8145
▁animal	-11.8145
▁Speed	-11.8145
▁Jason	-11.8146
▁114	-11.8152
cardo	-11.8153
_19744915_	-11.8157
rah	-11.8163
▁"$3	-11.8167
▁profile	-11.8167
_1998	-11.8173
▁Denver	-11.8174
▁cospar	-11.8174
gram	-11.8177
▁windows	-11.8178
▁males	-11.8179
584	-11.8181
_11734041_	-11.8189
▁204	-11.8193
▁sprint	-11.8194
▁Adam	-11.8198
▁AN	-11.8199
mans	-11.82
▁effic	-11.8204
▁1500	-11.8207
twi	-11.8211
627	-11.8214
▁wrestlers	-11.8226
▁1-1	-11.8229
▁prolonged	-11.8234
▁sunday	-11.8235
▁carries	-11.8236
Ku	-11.8243
yers	-11.8244
_1633	-11.8247
haun	-11.8252
toll	-11.826
▁night	-11.8261
_1493	-11.8261
94_3	-11.8264
242	-11.8269
nic	-11.8269
▁friends	-11.8269
▁pm	-11.8272
lines	-11.8272
edge	-11.8274
detail	-11.8276
figure	-11.8278
609	-11.8279
recipients	-11.8281
platform	-11.8281
1_5	-11.8287
candidate	-11.8287
yrs	-11.8292
lative	-11.8298
_1888	-11.8302
OW	-11.8304
▁mw	-11.8305
Gene	-11.8309
▁Bell	-11.831
▁association	-11.8323
▁policy	-11.8323
tracking	-11.8328
60_2	-11.8328
rob	-11.8334
Musical	-11.8339
dx	-11.8339
began	-11.834
▁Rose	-11.8341
sweden	-11.8342
council	-11.8342
▁284	-11.8344
modern	-11.8345
altitude	-11.8346
Virginia	-11.8346
direction	-11.8346
industry	-11.8347
temperature	-11.8347
ets	-11.8347
involved	-11.8348
Thomas	-11.8348
box	-11.8349
Texas	-11.835
physician	-11.835
andrew	-11.835
africa	-11.8351
budget	-11.8351
vacator	-11.8352
▁casualties	-11.8353
July	-11.8353
kerry	-11.8355
Points	-11.8355
protein	-11.8355
▁1979?	-11.8355
good	-11.8356
▁pac	-11.8357
before	-11.8358
▁Star	-11.8358
Up	-11.8361
▁Sports	-11.8361
▁285	-11.8361
Best	-11.8362
▁semifinal	-11.8363
white	-11.8364
opening	-11.8366
▁electorates	-11.8367
standard	-11.8369
▁1-2	-11.8371
rena	-11.8372
▁Del	-11.8374
semifinal	-11.8374
brm	-11.8377
▁detail	-11.8378
reported	-11.838
▁velocity	-11.8383
▁columbia	-11.8383
▁michigan	-11.8383
listed	-11.8383
585	-11.8386
rade	-11.8388
▁cores	-11.8392
conduct	-11.8393
attempts	-11.8394
iti	-11.8401
_11677100_	-11.8402
ela	-11.8405
▁48.	-11.8406
eppe	-11.8408
▁Mal	-11.8411
mls	-11.8411
hol	-11.8412
jin	-11.8412
▁Tennessee	-11.8413
▁kansas	-11.8413
▁mID	-11.8416
250	-11.8417
room	-11.8427
hey	-11.8432
mun	-11.8433
fter	-11.8434
▁5.5	-11.844
▁older	-11.8441
nova	-11.8443
▁council	-11.8444
▁sweden	-11.8444
atlético	-11.8445
mad	-11.8446
▁sand	-11.8447
84"	-11.8454
▁119	-11.846
2_5	-11.8461
rev	-11.8463
▁EU	-11.8464
64_2	-11.8468
cou	-11.8471
▁atlanta	-11.8474
aga	-11.8479
_1531	-11.8483
6_6	-11.8485
USA	-11.8495
196_1	-11.8496
ugh	-11.8503
▁energy	-11.8504
▁andrew	-11.8505
▁1:1	-11.8507
▁Up	-11.8511
▁"0–	-11.8513
▁transactions	-11.852
▁(2)"	-11.8522
verb	-11.8527
▁america	-11.8533
▁jason	-11.8535
dub	-11.8535
▁italy	-11.8536
stad	-11.854
iya	-11.8541
zen	-11.856
employeeid	-11.856
7–6	-11.856
yang	-11.8578
alan	-11.858
▁1.3	-11.8582
▁Motor	-11.8586
luca	-11.8591
Howard	-11.8591
▁inhabitants	-11.8597
girls	-11.8603
▁fo	-11.8605
yana	-11.8611
▁Mid	-11.8615
▁NC	-11.8628
aro	-11.8631
say	-11.8637
mol	-11.8639
KA	-11.864
fare	-11.8642
0,000"	-11.8649
1884	-11.8649
ief	-11.8651
ester	-11.8652
operations	-11.8653
▁350	-11.8656
kk	-11.8659
▁agent	-11.8662
▁writers	-11.8662
2012	-11.8667
▁reporters	-11.8668
Lo	-11.8668
–6"	-11.8679
arlos	-11.868
hun	-11.8687
-6?	-11.8688
double	-11.8689
▁genes	-11.8689
stan	-11.869
▁jerk	-11.8691
bond	-11.8693
llison	-11.8697
▁toronto	-11.8697
▁nba	-11.8699
▁Ger	-11.8699
788	-11.8705
2000)	-11.8707
▁Clark	-11.8708
▁Fall	-11.871
arina	-11.8712
_114011	-11.8716
▁We	-11.8716
▁"1:3	-11.8724
_1952	-11.8724
▁represented	-11.873
pv	-11.8737
▁involve	-11.8749
revious	-11.8751
▁montreal	-11.8752
▁Music	-11.8753
▁jamie	-11.8756
corporate	-11.8756
▁falcons	-11.8756
Anthony	-11.8756
Earnings	-11.8756
Edmonton	-11.8756
Feature	-11.8756
Museum	-11.8756
[[|	-11.8756
_12792876_	-11.8756
_14070062_	-11.8756
_16034882_	-11.8756
_22879323_	-11.8756
_23285805_	-11.8756
_23285849_	-11.8756
_2342078_	-11.8756
_23670057_	-11.8756
_25691838_	-11.8756
_27537870_	-11.8756
_29163303_	-11.8756
anthony	-11.8756
atlantic	-11.8756
behind	-11.8756
lincoln	-11.8756
newcastle	-11.8756
oakland	-11.8756
prohibition	-11.8756
restegjeld	-11.8756
taylor	-11.8756
▁Auckland	-11.8756
▁Broncos	-11.8756
▁Capacity	-11.8756
▁Elected	-11.8756
▁Ferrari	-11.8756
▁Ireland	-11.8756
▁Podiums	-11.8756
▁Reviewer	-11.8756
▁TEAM	-11.8756
▁TIME	-11.8756
▁TOTAL	-11.8756
▁Touchdowns	-11.8756
▁apparatus	-11.8756
▁teaches	-11.8756
Memphis	-11.8756
_1342198_	-11.8756
▁Dallas	-11.8756
subscribers	-11.8756
Coach	-11.8756
_1139835_	-11.8756
▁Bonus	-11.8756
▁Square	-11.8756
▁kraft	-11.8756
ujunga	-11.8756
_1341897_	-11.8756
rental	-11.8756
▁affiliated	-11.8756
diesel	-11.8756
nurse	-11.8756
▁firefox	-11.8756
Dutch	-11.8756
consort	-11.8756
doug	-11.8756
▁Elevat	-11.8756
emissions	-11.8756
▁republic	-11.8756
knights	-11.8756
▁Under	-11.8756
keith	-11.8756
ronym	-11.8756
▁Tech	-11.8756
▁trail	-11.8756
▁Templates	-11.8757
truck	-11.8757
vijay	-11.8757
_17598	-11.8757
▁Capital	-11.8757
▁hanzi	-11.8757
ization	-11.8757
▁Stakes	-11.8758
swing	-11.8758
▁climber	-11.8758
▁Yard	-11.8758
mult	-11.8758
MiB	-11.8758
students	-11.8758
RoomId	-11.8759
stadion	-11.8759
▁delivery	-11.8759
▁LO	-11.8759
_26181	-11.8759
voting	-11.8759
▁recently	-11.8759
intergiro	-11.876
_114008	-11.876
_1013129_	-11.876
_16710	-11.876
▁Has	-11.876
axle	-11.876
▁"1-1"	-11.8761
_16384	-11.8761
▁secs	-11.8762
filing	-11.8762
ncaster	-11.8763
▁Block	-11.8763
giles	-11.8763
psip	-11.8764
ecision	-11.8764
aAA	-11.8764
15647	-11.8764
–25"	-11.8764
▁pregame	-11.8765
MakeId	-11.8765
wkts	-11.8766
.5%"	-11.8767
86908_	-11.8768
▁Rich	-11.8768
▁dual	-11.8769
sudamericana	-11.8769
▁Term	-11.8771
fsb	-11.8772
▁Jun	-11.8773
aux	-11.8776
_23014	-11.8777
▁1928	-11.8777
2805_	-11.8777
▁audience	-11.8782
euro	-11.8783
.55	-11.8783
▁Real	-11.8783
_21795	-11.8783
▁Sky	-11.8784
Regular	-11.8785
▁134	-11.8785
▁6-3	-11.8787
▁apparent	-11.879
805	-11.8791
▁hp	-11.8791
Denis	-11.88
▁ML	-11.8801
medium	-11.8802
▁rated	-11.8803
foot	-11.8804
▁provided	-11.8805
lay	-11.8808
▁dr	-11.881
Mount	-11.8812
damaged	-11.8813
brook	-11.8814
native	-11.8814
founder	-11.8816
▁"2011"	-11.8817
▁inst	-11.8819
ough	-11.882
_1908	-11.882
▁epi	-11.8821
▁TO	-11.8828
iction	-11.8832
▁"1996	-11.8833
▁Atlanta	-11.8835
▁Hamilton	-11.8835
▁parallel	-11.8835
▁software	-11.8835
▁tropical	-11.8835
▁Ker	-11.8836
Book	-11.8837
aprilia	-11.8839
KER	-11.8842
edication	-11.8844
▁claims	-11.8847
None	-11.8848
▁Ham	-11.8848
▁lot	-11.8856
▁plan	-11.8858
▁carrier	-11.8859
Net	-11.8859
_228243	-11.8862
rest	-11.8862
▁Phil	-11.8864
▁crude	-11.8867
▁Jamie	-11.8867
▁orbital	-11.8867
▁Life	-11.8867
uu	-11.8869
▁"+1:	-11.8869
fame	-11.8871
▁"2007"	-11.8872
Not	-11.8879
asia	-11.8881
1942	-11.8881
andrea	-11.8882
camp	-11.8883
tickets	-11.8884
lift	-11.8887
▁"33"	-11.8887
▁90.	-11.8889
▁Hu	-11.889
1250	-11.889
▁safari	-11.8899
▁dutch	-11.8899
525	-11.8903
▁(7)"	-11.8904
▁Bl	-11.8907
rial	-11.8911
▁139	-11.8915
0%"	-11.8919
ode	-11.8924
▁Op	-11.8926
Sean	-11.8929
▁joseph	-11.893
▁Joseph	-11.8931
▁storage	-11.8931
▁cartridge	-11.8931
▁Roman	-11.8934
_1994	-11.8937
hole	-11.894
reign	-11.8947
_1895	-11.8949
▁Er	-11.8951
_137	-11.8951
▁cat	-11.8957
competitions	-11.8957
243_1	-11.8959
▁edmonton	-11.8962
▁spanish	-11.8963
mir	-11.8963
jp	-11.8964
▁grant	-11.8964
_10_11	-11.8965
ichi	-11.8965
▁6-4	-11.8966
gle	-11.8968
▁bout	-11.8972
▁resident	-11.8973
ister	-11.8975
▁meet	-11.8978
▁sal	-11.8983
▁living	-11.8992
_2153	-11.9001
Aaron	-11.9003
▁cargo	-11.9003
▁"200	-11.9004
▁jack	-11.9005
let	-11.9009
_2865	-11.9009
▁independent	-11.9009
ike	-11.9014
▁inter	-11.9016
alvin	-11.9018
▁205	-11.9019
2536	-11.9024
▁organization	-11.9025
_109	-11.9025
anti	-11.9026
▁Louisiana	-11.9027
▁saturday	-11.9027
▁transmitter	-11.9027
▁eastern	-11.9027
_1673	-11.903
▁howard	-11.9033
Bar	-11.9041
(2010	-11.9051
content	-11.9052
▁muzzle	-11.9059
▁(7)	-11.9059
▁Andrew	-11.9059
mora	-11.906
0_6	-11.9063
mole	-11.9064
Jon	-11.9065
▁friend	-11.907
juli	-11.9073
OM	-11.9076
bach	-11.9078
toni	-11.9078
Web	-11.9079
jury	-11.9084
dot	-11.9087
GS	-11.9088
▁calgary	-11.9092
▁chapter	-11.9092
▁structure	-11.9092
tail	-11.9099
[	-11.91
oma	-11.91
▁2–0	-11.9103
▁1–0	-11.9107
growth	-11.9107
injured	-11.9107
kentucky	-11.9107
estimate	-11.9108
Language	-11.9108
kansas	-11.9109
Tennessee	-11.9111
mixed	-11.9111
asset	-11.9111
berlin	-11.9111
enzyme	-11.9112
payload	-11.9113
▁elections	-11.9113
▁invoice	-11.9113
-75	-11.9113
tourism	-11.9113
richard	-11.9114
—	-11.9115
▁Brian	-11.9115
performed	-11.9115
control	-11.9116
ghz	-11.9116
TYPE	-11.9116
currently	-11.9116
running	-11.9117
Staff	-11.9117
Georgia	-11.9117
▁(1)	-11.9117
simplified	-11.9117
community	-11.9118
central	-11.9118
liberal	-11.9118
_22597626_	-11.9119
mintage	-11.9119
prominence	-11.9119
Canada	-11.9119
Jack	-11.9119
50_2	-11.9119
resolution	-11.912
italian	-11.912
centre	-11.9121
clean	-11.9122
condition	-11.9122
▁charge	-11.9124
▁sequence	-11.9124
▁arizona	-11.9124
.2%"	-11.9124
recent	-11.9124
▁daniel	-11.9124
▁front	-11.9125
▁friday	-11.9125
largest	-11.9127
hire	-11.9127
▁1967"	-11.9127
loser	-11.9136
upporting	-11.9143
▁sat	-11.9144
rag	-11.9144
gpa	-11.9144
IL	-11.9146
arn	-11.9147
jos	-11.9149
▁(5)	-11.9151
▁dist	-11.9153
▁berlin	-11.9157
▁ghz	-11.9158
6-7	-11.916
62"	-11.9162
meas	-11.9171
ement	-11.9178
SI	-11.9183
ood	-11.9187
spell	-11.9188
fran	-11.9189
assets	-11.919
loan	-11.9191
▁kerry	-11.9194
csf	-11.9199
▁+4	-11.92
▁Case	-11.9201
arian	-11.9206
villa	-11.9207
▁legs	-11.9208
urb	-11.921
▁Res	-11.9214
▁professional	-11.9215
▁Dick	-11.9219
tp	-11.9219
▁101	-11.9222
▁perfect	-11.9222
transactions	-11.9236
ull	-11.9238
409	-11.9242
838	-11.9251
_1494	-11.9252
▁yamaha	-11.9255
iga	-11.9261
755	-11.9271
:30"	-11.9277
you	-11.9281
neva	-11.9282
uda	-11.9291
Ben	-11.9295
_2625	-11.9296
_1341663_	-11.9298
110	-11.9299
brad	-11.93
rights	-11.9301
▁Marc	-11.9302
arine	-11.9303
pine	-11.9304
▁1934	-11.9305
▁#3	-11.9315
BS	-11.9321
▁maserati	-11.9322
1229	-11.9333
stere	-11.934
▁201	-11.934
408_1	-11.9343
bul	-11.9344
▁appe	-11.9347
▁2:0	-11.9349
chen	-11.9354
Store	-11.9356
▁due	-11.9363
chip	-11.9363
▁file	-11.9366
boro	-11.9378
aca	-11.9383
▁vol	-11.9387
eto	-11.9393
officer	-11.9399
▁Bel	-11.9401
▁bed	-11.9402
_1214	-11.9419
▁8.6	-11.9421
org	-11.9435
iler	-11.9439
–5"	-11.9447
Steph	-11.9455
▁Other	-11.9455
▁motorsport	-11.9456
prince	-11.9458
suburb	-11.9459
▁rebound	-11.9459
▁RO	-11.946
▁earn	-11.9461
cording	-11.9467
.3%"	-11.9472
▁cause	-11.9473
meeting	-11.9474
▁colt	-11.9478
▁gran	-11.9481
436	-11.9491
small	-11.9495
▁fai	-11.9498
mund	-11.95
cf	-11.9504
12_3	-11.9504
rown	-11.9505
_26683	-11.9506
▁0–1	-11.9512
elevision	-11.9513
kov	-11.9518
lga	-11.952
oltage	-11.9522
scale	-11.9522
▁Water	-11.9523
ø	-11.9524
nopposed	-11.9525
convention	-11.9525
▁Works	-11.9525
▁Elector	-11.9525
Ottawa	-11.9525
Phoenix	-11.9525
Syracuse	-11.9525
UEFA	-11.9525
_1342292_	-11.9525
_1342331_	-11.9525
_16575609_	-11.9525
_19061741_	-11.9525
_1974545_	-11.9525
_20866024_	-11.9525
_22654073_	-11.9525
_23274514_	-11.9525
_25604014_	-11.9525
_27902171_	-11.9525
alabama	-11.9525
approximate	-11.9525
assembly	-11.9525
beijing	-11.9525
configuration	-11.9525
cussion	-11.9525
delivered	-11.9525
dismissals	-11.9525
icelandic	-11.9525
mississippi	-11.9525
▁General	-11.9525
▁License	-11.9525
▁MCG	-11.9525
▁Obama	-11.9525
▁PICK	-11.9525
▁Patriots	-11.9525
▁cerclis	-11.9525
▁coliseum	-11.9525
▁deficiency	-11.9525
▁procedures	-11.9525
▁railroad	-11.9525
▁romanised	-11.9525
▁session	-11.9525
▁spacecraft	-11.9525
Austin	-11.9525
Orchestra	-11.9525
Private	-11.9525
_22883210_	-11.9525
dallara	-11.9525
interface	-11.9525
landesliga	-11.9525
mercedes	-11.9525
together	-11.9525
▁"4-0"	-11.9525
▁Draft	-11.9525
allowed	-11.9525
craig	-11.9525
question	-11.9525
sampling	-11.9525
▁MODEL	-11.9525
▁campbell	-11.9525
affairs	-11.9525
_13758945_	-11.9525
admitted	-11.9525
brooklyn	-11.9525
▁oliver	-11.9525
Arizona	-11.9525
wolf	-11.9525
colony	-11.9525
▁Craig	-11.9525
northern	-11.9525
▁irish	-11.9525
yyy	-11.9525
▁Leeds	-11.9525
withdrawal	-11.9525
▁audio	-11.9526
▁romeo	-11.9526
stanford	-11.9526
grass	-11.9526
orrect	-11.9526
▁distribution	-11.9526
▁sideline	-11.9526
▁portrayed	-11.9527
▁Jets	-11.9527
bruce	-11.9527
▁complaints	-11.9527
▁speedway	-11.9528
jerem	-11.9528
▁derby	-11.9528
▁"1–0"	-11.9528
▁Brunswick	-11.9528
▁kilometers	-11.9528
normal	-11.9529
kitmaker	-11.9529
▁squad	-11.9529
allied	-11.9529
▁bears	-11.9529
3531	-11.953
1959	-11.953
athens	-11.953
navy	-11.9531
▁speak	-11.9531
▁stake	-11.9531
breed	-11.9532
–0"	-11.9532
split	-11.9532
_2528382_	-11.9533
▁feb	-11.9534
▁billing	-11.9534
teen	-11.9535
▁"6–2	-11.9535
▁"1–	-11.9536
▁canton	-11.9538
manual	-11.9538
▁3.6	-11.9541
Portland	-11.9542
▁pba	-11.9543
▁Saint	-11.9543
_10361	-11.9543
Mission	-11.9544
▁AIRPORT	-11.9544
expected	-11.9545
Forward	-11.955
locality	-11.955
majority	-11.955
▁1945	-11.9558
▁int	-11.956
zhou	-11.956
ROU	-11.956
Nor	-11.9561
Grape	-11.9561
Pete	-11.9563
▁Allen	-11.9564
karen	-11.9565
▁ntf	-11.9565
mina	-11.9565
hold	-11.9566
▁(10)	-11.9567
summit	-11.9572
closing	-11.9573
Good	-11.9574
▁Netherlands	-11.9577
▁SHARE	-11.9577
▁deputy	-11.9577
▁Scotland	-11.9577
▁"2008	-11.9577
southwest	-11.9578
▁choreographer	-11.9578
pads	-11.9579
petid	-11.958
pointers	-11.958
Marcus	-11.9582
▁Roll	-11.9585
_2939	-11.9588
▁charter	-11.9588
3000	-11.9589
ize	-11.959
▁GT	-11.9592
10706	-11.9592
ermo	-11.9593
▁tune	-11.9594
_2609	-11.9601
▁293	-11.9603
orkshop	-11.9605
poly	-11.9606
▁1.5	-11.9606
▁289	-11.9609
▁Gordon	-11.9611
▁proposed	-11.9611
▁Seattle	-11.9611
Bryan	-11.9615
ario	-11.9616
arrington	-11.9618
secondary	-11.9627
rit	-11.9627
LES	-11.9627
Authors	-11.9628
621	-11.963
working	-11.9631
▁strongs	-11.9631
Over	-11.9638
▁placings	-11.964
ime	-11.964
arrows	-11.9643
▁polyunsaturated	-11.9645
▁Indianapolis	-11.9645
▁Kelly	-11.9645
▁currency	-11.9645
▁hamilton	-11.9645
▁nelson	-11.9645
▁technology	-11.9645
argo	-11.9649
asi	-11.9654
▁4000	-11.9655
▁judges	-11.9658
▁Or	-11.9661
58_2	-11.9661
_2517	-11.9661
▁diff	-11.9661
▁5,008"	-11.9661
sight	-11.9662
sampled	-11.9666
CL	-11.9668
dent	-11.967
▁217	-11.967
hz	-11.9672
ount	-11.9674
▁1995"	-11.9674
▁"2008"	-11.9675
▁pf	-11.9676
RO	-11.9679
mine	-11.9679
artford	-11.968
▁agency	-11.968
▁promoted	-11.968
▁tdp	-11.968
▁drop	-11.968
▁pronunciation	-11.968
▁maryland	-11.968
awan	-11.9682
▁(5)"	-11.9685
▁launches	-11.9691
79_3	-11.9692
valve	-11.9695
▁hd	-11.9695
dev	-11.9697
uto	-11.9701
_2791	-11.9702
▁11.1	-11.9706
▁Join	-11.9714
▁fifth	-11.9714
▁variant	-11.9714
Ran	-11.9714
▁walker	-11.9716
_2647	-11.9718
rley	-11.9723
▁lives	-11.9725
▁Bru	-11.9727
flow	-11.9728
596_1	-11.9729
Thi	-11.9731
_21_22	-11.9735
italia	-11.9737
_230	-11.9738
_2456	-11.9738
▁reserve	-11.9743
__2008_	-11.9744
2864_	-11.9745
▁df	-11.9748
DC	-11.9751
olly	-11.9751
-26	-11.9752
▁vo	-11.9752
_1341663_1	-11.9757
▁Billy	-11.9762
▁seating	-11.9763
▁"32"	-11.9767
Hard	-11.9772
HS	-11.9773
elton	-11.9774
▁Awards	-11.9775
▁bulgarian	-11.9783
▁Railway	-11.9784
▁Utah	-11.9784
▁acquired	-11.9784
_1889	-11.9784
3-0	-11.9788
▁bmw	-11.9788
▁You	-11.9789
mix	-11.9792
▁Rate	-11.9794
51_3	-11.9796
▁items	-11.9797
▁mlb	-11.9797
▁singers	-11.9799
Wang	-11.9805
_290	-11.9807
King	-11.9809
mond	-11.981
SS	-11.9818
▁274	-11.982
aldo	-11.982
▁212	-11.9821
-17"	-11.9826
nique	-11.9838
_1341423_3	-11.9839
ika	-11.9842
_248	-11.9848
ernie	-11.985
▁horizontal	-11.9854
▁instrument	-11.9854
▁conservative	-11.9854
▁london	-11.9854
▁russian	-11.9854
USD	-11.9857
_1120	-11.9859
_22673	-11.9864
had	-11.9865
tru	-11.9865
six	-11.9865
_2528	-11.9869
36_2	-11.9873
▁Blan	-11.9874
▁207	-11.9875
▁(0-1)	-11.9878
▁Champions	-11.9878
▁Yu	-11.988
signal	-11.9882
650_1	-11.9883
▁poverty	-11.9889
▁colorado	-11.989
▁roger	-11.989
AA	-11.9892
yi	-11.9894
▁141	-11.9896
arrival	-11.9897
innings	-11.9897
_1773	-11.9904
▁"1.0	-11.9905
▁forename	-11.9912
tone	-11.9917
▁material	-11.9925
sample	-11.9937
manufacture	-11.9938
material	-11.9942
arizona	-11.9943
sequence	-11.9943
dorm	-11.9943
front	-11.9943
charge	-11.9944
friday	-11.9944
columbia	-11.9944
velocity	-11.9944
michigan	-11.9944
daniel	-11.9945
Houston	-11.9945
Kev	-11.9945
Representative	-11.9947
failures	-11.9947
professors	-11.9947
Order	-11.9947
ml	-11.9948
termination	-11.9949
feature	-11.995
Australia	-11.995
pitcher	-11.995
III	-11.9951
theatre	-11.9951
labour	-11.9951
MHz	-11.9952
adelaide	-11.9952
stolen	-11.9952
Spec	-11.9953
▁1968"	-11.9953
payment	-11.9953
LOCATION	-11.9954
flight	-11.9955
Winner	-11.9955
English	-11.9955
centerfold	-11.9956
representative	-11.9956
pilot	-11.9956
catalogue	-11.9956
formula	-11.9957
aA	-11.9957
Rob	-11.9959
▁Language	-11.996
▁afc	-11.996
ENT	-11.9969
_1505	-11.9974
addresses	-11.9977
▁fun	-11.9978
invoice	-11.9978
441	-11.9978
cru	-11.9982
prod	-11.9988
RP	-11.9989
▁cook	-11.9991
fcc	-11.9992
19523	-11.9996
▁began	-11.9996
cyl	-11.9997
▁Musical	-11.9999
▁studios	-11.9999
anton	-12.0012
Joe	-12.0012
▁descriptions	-12.0035
_2500	-12.0036
igan	-12.0041
939	-12.0046
_1460	-12.0048
CD	-12.0048
eiro	-12.0049
▁America	-12.0051
_11803648_2	-12.0051
avo	-12.0061
▁ireland	-12.0065
elli	-12.0069
yama	-12.0078
▁great	-12.0086
4772	-12.0091
hine	-12.0091
▁equ	-12.0103
33_4	-12.0105
22510	-12.0112
_2241	-12.0118
pool	-12.0119
uma	-12.0125
▁Bri	-12.0128
PM	-12.0128
_2562572_3	-12.0137
tina	-12.014
▁degree	-12.0141
hit	-12.0143
carl	-12.0145
EC	-12.015
▁1976"	-12.0152
_2203	-12.0154
tests	-12.0155
ody	-12.0158
bills	-12.0166
_2226	-12.0173
1960	-12.0176
moto	-12.018
▁Hometown	-12.0187
unda	-12.0189
▁276	-12.0191
▁Post	-12.0195
8%"	-12.0198
_159	-12.0204
lands	-12.0206
▁"2010	-12.0211
▁width	-12.0212
▁5,008	-12.0212
To	-12.0214
▁Gran	-12.0219
gie	-12.0223
pin	-12.0225
▁reports	-12.0228
eur	-12.0228
86_3	-12.0239
uel	-12.0247
_15621965_1	-12.0247
▁1986"	-12.0266
▁India	-12.0271
▁stop	-12.0277
▁124	-12.0277
79_2	-12.0281
iver	-12.0287
▁els	-12.029
after	-12.029
languages	-12.0291
gua	-12.0292
aston	-12.0292
esp	-12.0297
SB	-12.0299
▁"2012	-12.0303
finale	-12.0304
▁billions	-12.0306
_2264	-12.0312
etention	-12.0321
rina	-12.0334
hei	-12.0345
ois	-12.0346
raf	-12.0347
▁Christian	-12.0349
arm	-12.0351
▁compete	-12.0352
urrent	-12.0352
OL	-12.0355
▁actors	-12.0356
eagle	-12.0356
accelerat	-12.0357
_1342249_	-12.0359
_23285761_	-12.0359
egypt	-12.0359
external	-12.0359
fixtures	-12.0359
▁vikings	-12.0359
Beijing	-12.0359
_1242447_	-12.0359
_132588	-12.0359
_17641206_	-12.0359
_19930660_	-12.0359
_20726262_	-12.0359
_22993636_	-12.0359
_26166836_	-12.0359
_26847237_	-12.0359
_27374004_	-12.0359
_27712702_	-12.0359
_27715173_	-12.0359
_27734577_	-12.0359
approach	-12.0359
brigade	-12.0359
budapest	-12.0359
categorie	-12.0359
franchise	-12.0359
kazakhstan	-12.0359
kurtis	-12.0359
lorenzo	-12.0359
marlboro	-12.0359
olivier	-12.0359
pattern	-12.0359
suzuki	-12.0359
▁Athletic	-12.0359
▁Built	-12.0359
▁Flyers	-12.0359
▁Friday	-12.0359
▁Iowa	-12.0359
▁Level	-12.0359
▁Maserati	-12.0359
▁Murray	-12.0359
▁Oakland	-12.0359
▁Question	-12.0359
▁Thursday	-12.0359
▁Tokyo	-12.0359
▁canadiens	-12.0359
▁cyclist	-12.0359
▁mailshot	-12.0359
▁redskins	-12.0359
▁rufus	-12.0359
▁shuttle	-12.0359
▁steelers	-12.0359
▁turbines	-12.0359
_24143253_	-12.0359
sellout	-12.0359
varsity	-12.0359
▁DVD	-12.0359
▁Monday	-12.0359
▁gordon	-12.0359
_1341568_	-12.0359
simpson	-12.0359
▁Authority	-12.0359
▁albion	-12.0359
_27615896_	-12.0359
EMP	-12.0359
Keith	-12.0359
umphrey	-12.0359
▁transcription	-12.0359
_107071	-12.0359
▁Bruins	-12.0359
_237757_	-12.0359
▁wedding	-12.0359
favor	-12.0359
▁wilson	-12.0359
samuel	-12.0359
pioneer	-12.0359
▁Women	-12.0359
_113770	-12.0359
▁police	-12.0359
▁HDTV	-12.0359
▁Lions	-12.0359
_301210	-12.0359
▁lewis	-12.0359
delaware	-12.0359
attach	-12.0359
polish	-12.0359
_2668243_1	-12.0359
seventh	-12.0359
▁metal	-12.0359
dnf	-12.0359
▁Romaj	-12.0359
_171236_	-12.0359
heinz	-12.0359
▁Young	-12.0359
▁basePrice	-12.0359
▁Oppos	-12.0359
stanley	-12.0359
punches	-12.0359
▁motorcycle	-12.036
▁component	-12.036
▁Local	-12.036
hangul	-12.036
▁composition	-12.036
▁supercopa	-12.036
watts	-12.036
fernando	-12.0361
▁"—"	-12.0361
▁NBA	-12.0361
Marketing	-12.0362
sogn	-12.0362
_12338	-12.0362
▁1931	-12.0362
downhill	-12.0363
▁Old	-12.0363
Master	-12.0363
Female	-12.0363
▁Panel	-12.0363
▁Rome	-12.0364
allergytype	-12.0364
commonwealth	-12.0364
001_2	-12.0364
_21350	-12.0364
857_1	-12.0364
Crime	-12.0364
▁Gross	-12.0365
child	-12.0365
▁Airlines	-12.0366
coloni	-12.0366
guill	-12.0366
▁metro	-12.0366
basis	-12.0366
▁"1-2"	-12.0367
4708	-12.0368
Wayne	-12.0369
▁NY	-12.0371
▁cbr	-12.0372
chuck	-12.0373
▁tweets	-12.0374
communes	-12.0374
▁boat	-12.0374
summary	-12.0374
Zach	-12.0374
half	-12.0374
duke	-12.0375
25238	-12.0376
▁1947	-12.0377
reading	-12.0379
soviet	-12.0379
2004	-12.038
ism	-12.0381
▁Edwards	-12.0381
▁"2–6	-12.0382
secretary	-12.0382
efore	-12.0384
▁1:2	-12.0384
▁mother	-12.0384
_229	-12.0385
LIST	-12.0386
80777	-12.0387
▁"$1	-12.0389
472_2	-12.039
▁seed	-12.0392
▁locale	-12.0392
_2985	-12.0392
▁1920	-12.0392
▁lakers	-12.0393
andre	-12.0393
domini	-12.0394
entering	-12.0394
novel	-12.0394
lessandr	-12.0395
70439	-12.0397
▁LP	-12.0398
atrick	-12.0401
partially	-12.0403
23387	-12.0404
gear	-12.0404
_2148	-12.0405
▁birthday	-12.0405
fit	-12.0408
lena	-12.0408
▁usage	-12.041
33282	-12.0411
▁Wisconsin	-12.0415
▁endowment	-12.0415
_26842217_	-12.0415
headquartered	-12.0416
flag	-12.0417
_2201	-12.0421
heart	-12.0421
eon	-12.0421
▁126	-12.0426
▁gro	-12.0429
1180	-12.043
manuel	-12.043
14702_	-12.0431
cmp	-12.0433
eeded	-12.0433
▁Saints	-12.0434
▁5.7	-12.0435
ofres	-12.0438
Indian	-12.0438
vale	-12.044
_1341472_	-12.0442
_22165	-12.0442
▁shared	-12.0442
▁flaps	-12.0444
lyn	-12.0444
(2012)	-12.0445
▁"1995	-12.0446
_1976	-12.0449
Feb	-12.045
remo	-12.045
▁Roberts	-12.0452
▁Vancouver	-12.0452
▁bubble	-12.0452
▁management	-12.0452
▁hebrew	-12.0452
▁Latin	-12.0452
▁catches	-12.0453
▁Fox	-12.0453
▁listing	-12.0454
_1637	-12.0456
_1360	-12.0459
OP	-12.0461
▁(12)	-12.0461
Bad	-12.0466
30_3	-12.0467
riz	-12.0467
▁Lowe	-12.0468
Ko	-12.0469
▁wines	-12.0469
gian	-12.0473
__2007_	-12.0473
▁ross	-12.0473
▁finishing	-12.0474
achievement	-12.0478
channels	-12.0478
27_2	-12.0478
25606	-12.0481
ady	-12.0483
▁Mile	-12.0486
▁Projects	-12.0489
▁Clemson	-12.049
▁marathon	-12.049
▁Pittsburgh	-12.049
▁Spanish	-12.049
▁crime	-12.049
▁private	-12.049
▁download	-12.049
▁regionalliga	-12.049
annon	-12.0493
▁2.4	-12.0497
▁airline	-12.0497
Pro	-12.05
▁129	-12.0502
▁2:3	-12.0503
▁bud	-12.0505
osta	-12.0506
▁162	-12.0508
lett	-12.051
Boo	-12.051
▁months	-12.0514
▁185	-12.0519
hdi	-12.0521
▁coin	-12.0523
lim	-12.0526
hara	-12.0526
▁pennsylvania	-12.0527
▁prereq	-12.0527
▁bulls	-12.0527
agan	-12.0527
8014	-12.0533
▁spike	-12.0535
▁"30"	-12.0538
▁175	-12.0544
▁wed	-12.0544
▁Male	-12.0545
▁Pol	-12.055
lling	-12.0554
▁Simon	-12.0555
uba	-12.0556
▁success	-12.0561
▁Rams	-12.0561
▁7–6(	-12.0562
cock	-12.0564
▁wine	-12.0564
▁charlotte	-12.0565
▁Henry	-12.0565
mura	-12.0566
▁dob	-12.0566
ender	-12.0574
Roy	-12.0578
_2457	-12.0581
▁240	-12.0581
▁access	-12.0587
_2064	-12.059
_1751	-12.0592
fort	-12.0594
_2898	-12.0596
rthur	-12.0597
▁governor	-12.0603
▁Visits	-12.0603
▁pageant	-12.0603
▁reached	-12.0603
_1882	-12.0605
illa	-12.0607
▁spent	-12.0608
▁Pan	-12.0614
dv	-12.062
_2077	-12.0623
ector	-12.0625
6689	-12.0633
0.00	-12.0634
fighting	-12.0637
▁policies	-12.0641
▁handle	-12.0641
▁military	-12.0642
NER	-12.0652
▁large	-12.0654
csa	-12.0654
159_1	-12.0661
BE	-12.0675
▁cosworth	-12.0679
▁Finals	-12.0681
moor	-12.0687
dez	-12.0693
6%	-12.0696
▁certificat	-12.0697
_15887683_1	-12.0699
_2635	-12.0714
▁hungary	-12.0718
▁hindi	-12.0718
▁connection	-12.0718
▁stamp	-12.072
▁space	-12.0721
3848	-12.0722
Andre	-12.0723
▁Map	-12.0727
fly	-12.0731
▁Hay	-12.0733
4016	-12.0735
Ba	-12.0737
zel	-12.0738
AB	-12.074
reporter	-12.074
▁Proto	-12.0744
▁jul	-12.0745
▁planet	-12.0755
▁oil	-12.0756
▁tennessee	-12.0756
▁Max	-12.0757
anders	-12.0758
saka	-12.0763
▁upper	-12.0765
▁gun	-12.0766
557_1	-12.0771
tam	-12.0777
1217	-12.0788
profile	-12.079
intro	-12.0791
block	-12.0802
▁0.8	-12.0805
▁PI	-12.0806
▁Kev	-12.0808
▁asset	-12.0808
▁214	-12.081
_1165	-12.0811
mbit	-12.0819
3667	-12.0826
▁estimate	-12.0827
village	-12.0829
▁injured	-12.0834
▁kentucky	-12.0834
▁growth	-12.0834
▁jury	-12.0836
NA	-12.0836
vac	-12.0838
dome	-12.084
ernhard	-12.0841
cause	-12.0843
▁"1.8	-12.0844
▁nominees	-12.0845
_1485	-12.0846
ove	-12.0849
tennessee	-12.0849
poverty	-12.0851
colorado	-12.0851
structure	-12.0852
chapter	-12.0852
Employee	-12.0852
calgary	-12.0853
German	-12.0853
dart	-12.0853
casualties	-12.0853
premier	-12.0854
Source	-12.0854
Daniel	-12.0854
antonio	-12.0855
mexico	-12.0855
planet	-12.0856
roger	-12.0856
London	-12.0856
pressure	-12.0857
mv	-12.0857
function	-12.0857
George	-12.0858
section	-12.0858
Aircraft	-12.0859
tenure	-12.0859
composer	-12.0859
senator	-12.0859
Philadelphia	-12.086
provider	-12.086
elimination	-12.0861
senior	-12.0861
Region	-12.0863
elf	-12.0865
WE	-12.0865
young	-12.0865
street	-12.0865
bowling	-12.0865
France	-12.0865
Sky	-12.0865
5_6	-12.0866
Semi	-12.0867
clock	-12.0868
State	-12.0869
Player	-12.0869
fund	-12.087
crew	-12.0871
▁fare	-12.0874
trainer	-12.0876
fire	-12.0876
are	-12.088
1892	-12.0882
aldi	-12.0882
▁Woods	-12.0884
gun	-12.0885
just	-12.0897
separate	-12.09
steals	-12.0902
66_3	-12.0906
8143	-12.0913
aly	-12.0915
chan	-12.0935
alton	-12.0939
figures	-12.0949
▁mine	-12.0951
females	-12.0966
▁280	-12.0967
HP	-12.0967
profits	-12.097
williams	-12.0972
▁pas	-12.0975
én	-12.0982
scu	-12.0982
▁3-1	-12.0983
dine	-12.0985
alco	-12.0991
8976	-12.0995
▁1.9	-12.0997
313	-12.0998
odds	-12.0998
▁Pop	-12.0999
▁1981"	-12.1003
airing	-12.1011
hari	-12.1015
shop	-12.1015
taka	-12.1016
olin	-12.102
▁prices	-12.1025
upper	-12.1028
▁kan	-12.1031
IE	-12.1034
Romania	-12.1055
shut	-12.1055
▁dome	-12.106
▁Lea	-12.1066
031	-12.1069
asco	-12.1069
▁Asia	-12.107
nord	-12.108
bbl	-12.1085
▁Nu	-12.1088
▁88.	-12.1096
cut	-12.1098
uer	-12.1098
▁woods	-12.1117
kki	-12.1119
352	-12.1127
597	-12.1129
▁1.2	-12.1129
boa	-12.1134
▁Tour	-12.1142
1979	-12.1146
071_1	-12.1151
▁depart	-12.1157
1389	-12.1157
176_1	-12.1157
_22824	-12.1158
urity	-12.1168
itial	-12.1168
▁Deb	-12.1169
LL	-12.1176
▁Darr	-12.1183
_1762	-12.1194
▁damage	-12.1195
▁Point	-12.1204
nr	-12.1204
_26842217_1	-12.1206
414	-12.1206
but	-12.1221
tat	-12.1227
▁45.	-12.1232
_1742	-12.1235
92_2	-12.1236
▁seconds	-12.1238
▁enter	-12.1238
5259	-12.124
fael	-12.1246
Edward	-12.1248
originalairdate	-12.1252
_16278	-12.1253
Lawrence	-12.1254
▁Jay	-12.1258
_28059992_	-12.1259
▁Church	-12.126
egree	-12.1261
oil	-12.1261
etflix	-12.1262
▁Unit	-12.1262
▁happen	-12.1263
▁begin	-12.1263
profession	-12.1264
lc	-12.1266
▁Angel	-12.1266
cus	-12.1267
▁journal	-12.1267
amendments	-12.1268
_20466963_	-12.1268
magazine	-12.1268
restaurant	-12.1268
▁chemical	-12.1268
Atlantic	-12.1268
Cincinnati	-12.1268
Connecticut	-12.1268
Eliminated	-12.1268
Jeremy	-12.1268
Missouri	-12.1268
Programs	-12.1268
_11630008_	-12.1268
_11900773_	-12.1268
_13619135_	-12.1268
_13741576_	-12.1268
_15700367_	-12.1268
_16570286_	-12.1268
_16729930_1	-12.1268
_17323092_	-12.1268
_17355408_	-12.1268
_17360840_	-12.1268
_17625749_	-12.1268
_17941032_	-12.1268
_20704243_	-12.1268
_2144389_	-12.1268
_22050544_	-12.1268
_22514845_	-12.1268
_24431264_1	-12.1268
_2610582_	-12.1268
_26368963_	-12.1268
_27091128_	-12.1268
_27319183_	-12.1268
_27700375_	-12.1268
amazon	-12.1268
argument	-12.1268
arsenal	-12.1268
assignment	-12.1268
baltimore	-12.1268
chelsea	-12.1268
climax	-12.1268
curtis	-12.1268
jacques	-12.1268
missouri	-12.1268
neighborhood	-12.1268
quebec	-12.1268
valencia	-12.1268
wrexham	-12.1268
▁Antonio	-12.1268
▁CUSTOMER	-12.1268
▁Campbell	-12.1268
▁Chargers	-12.1268
▁Coliseum	-12.1268
▁Collins	-12.1268
▁Incumbent	-12.1268
▁Oilers	-12.1268
▁Renault	-12.1268
▁Three	-12.1268
▁VISITS	-12.1268
▁Zealand	-12.1268
▁academy	-12.1268
▁broncos	-12.1268
▁canucks	-12.1268
▁halfback	-12.1268
Hardware	-12.1268
UCLA	-12.1268
_12419515_	-12.1268
sokn	-12.1268
victories	-12.1268
▁Fleet	-12.1268
▁vertical	-12.1268
▁POINTS	-12.1268
▁Video	-12.1268
▁health	-12.1268
▁novelty	-12.1268
RIES	-12.1268
_160284	-12.1268
javier	-12.1268
peruvian	-12.1268
russell	-12.1268
▁Evans	-12.1268
ISBN	-12.1268
Nelson	-12.1268
_11214772_	-12.1268
Governor	-12.1268
virtue	-12.1268
ontario	-12.1268
▁Wells	-12.1268
Winery	-12.1268
_1341640_	-12.1268
▁Rockets	-12.1268
cooper	-12.1268
460085_	-12.1268
_114007	-12.1268
▁column	-12.1268
pedro	-12.1268
ladies	-12.1268
▁chargers	-12.1268
www	-12.1268
▁concacaf	-12.1268
zimbabwe	-12.1268
▁Skip	-12.1268
Temple	-12.1268
Stuart	-12.1268
▁cowboys	-12.1268
▁genus	-12.1268
danish	-12.1268
▁unopposed	-12.1268
▁Debut	-12.1268
demand	-12.1269
rural	-12.1269
dennis	-12.1269
Snatch	-12.1269
merindian	-12.1269
▁"0-1"	-12.1269
▁Medal	-12.1269
▁Senator	-12.1269
Billion	-12.1269
bearers	-12.1269
▁cricket	-12.1269
cyber	-12.1269
▁Headquarters	-12.127
▁Denni	-12.127
croatian	-12.127
▁food	-12.127
▁Seats	-12.127
molecular	-12.127
henry	-12.1271
Sha	-12.1271
▁"3:3	-12.1271
everton	-12.1272
linda	-12.1272
▁travel	-12.1273
_2679061_1	-12.1273
▁visa	-12.1273
▁MAN	-12.1273
ology	-12.1273
express	-12.1274
▁"3-2"	-12.1274
quarterback	-12.1274
▁founding	-12.1274
uerto	-12.1274
▁"2003"	-12.1275
participates	-12.1275
▁Eng	-12.1276
qatar	-12.1276
Domini	-12.1276
▁Gray	-12.1276
▁lmp	-12.1277
aiji	-12.1277
civilian	-12.1277
decay	-12.1278
pettype	-12.1278
_25355	-12.1279
▁balls	-12.1279
Sergi	-12.128
nised	-12.1281
chl	-12.1281
▁Force	-12.1281
▁"2007	-12.1281
▁Base	-12.1281
disney	-12.1281
(2011	-12.1281
Jessi	-12.1283
Neil	-12.1284
_15001	-12.1284
warship	-12.1284
retail	-12.1286
▁1941	-12.1286
tracks	-12.1287
oyne	-12.1288
SN	-12.1288
▁Track	-12.1289
▁selection	-12.129
▁lived	-12.1291
reunion	-12.1291
conversion	-12.1292
Ru	-12.1293
sept	-12.1298
picture	-12.1298
▁broadcaster	-12.1298
_1342233_1	-12.1299
▁beer	-12.1299
▁injury	-12.1301
▁gay	-12.1303
▁Motorsports	-12.1304
▁trained	-12.1306
_22669	-12.1307
/100	-12.1308
▁"2:1	-12.1308
Full	-12.1309
▁Mary	-12.1311
▁1949	-12.1312
wnba	-12.1315
_1560	-12.1321
inia	-12.1321
angel	-12.1322
▁headquarter	-12.1326
▁Object	-12.133
▁apartments	-12.1331
▁(21)	-12.1334
24844_	-12.1338
irculation	-12.1338
▁Ni	-12.1338
woo	-12.1339
▁4.4	-12.1341
_1607	-12.1342
tation	-12.1347
11545	-12.1347
_191885	-12.1349
_2268	-12.135
casey	-12.1352
rower	-12.1352
namesake	-12.1354
2007	-12.1355
▁(14)	-12.1357
▁professionals	-12.1358
3485_	-12.136
▁Ranking	-12.136
Fault	-12.1363
▁Stars	-12.1364
_2423	-12.1365
▁Eagles	-12.1367
buck	-12.1367
▁0-4	-12.1368
▁2-3	-12.1368
▁2017	-12.1368
▁heavy	-12.137
▁Wrestler	-12.1371
▁LANGUAGE	-12.1371
▁Tigers	-12.1371
▁oppose	-12.1371
lineage	-12.1373
bay	-12.1377
▁appeared	-12.1378
▁korean	-12.1379
Laura	-12.1382
16139_	-12.1384
etti	-12.1385
vista	-12.1389
coli	-12.1391
laid	-12.1392
▁AVE	-12.1399
_1341453_3	-12.1401
▁"13.	-12.1403
uro	-12.1407
expenses	-12.1408
245350	-12.1411
ettlements	-12.1411
▁Advisor	-12.1412
▁Wimbledon	-12.1412
▁defending	-12.1412
▁rushing	-12.1414
▁Ray	-12.1414
▁Bills	-12.1418
beck	-12.142
umn	-12.1422
▁def	-12.1422
▁application	-12.1423
_10015132_	-12.1423
-08	-12.1423
▁4-3	-12.1427
▁dimensions	-12.1429
▁sing	-12.1433
▁"2010"	-12.1435
1971	-12.1437
mitte	-12.1437
marc	-12.1445
erek	-12.1447
645	-12.1449
▁stores	-12.1452
ying	-12.1453
▁greek	-12.1453
▁graham	-12.1453
▁monarch	-12.1454
modes	-12.1455
mika	-12.1455
_2640	-12.1459
▁edward	-12.1464
▁included	-12.1467
_1640	-12.147
▁2.5	-12.147
▁7-6	-12.1472
▁transit	-12.1474
_260	-12.1474
▁10000	-12.1476
▁"2.0	-12.1478
ima	-12.148
▁2:2	-12.1481
▁Eric	-12.1481
▁1890	-12.1483
6557_	-12.1485
▁"3:0	-12.1485
5424	-12.1488
1841	-12.149
▁Milwaukee	-12.1495
▁unemployment	-12.1495
▁Alabama	-12.1495
▁greece	-12.1495
0706_	-12.1495
▁renault	-12.1495
▁rookie	-12.1495
▁portland	-12.1497
12608	-12.1506
▁characters	-12.1509
incl	-12.1515
_2889	-12.1517
eston	-12.1524
920_1	-12.1526
_1792	-12.1527
865_1	-12.1534
007_2	-12.1534
766_1	-12.1534
▁"1960	-12.1535
▁oklahoma	-12.1537
▁yellow	-12.1537
▁rainfall	-12.1537
▁propulsion	-12.1537
_1853	-12.1553
exp	-12.1554
▁216	-12.1557
sets	-12.1558
_1679	-12.1559
▁291	-12.156
▁118	-12.1563
kra	-12.1566
throw	-12.1575
▁3–0	-12.158
andro	-12.1582
ongitude	-12.1583
Robin	-12.1587
iii	-12.1587
pret	-12.1591
_2596	-12.1593
pres	-12.1603
ways	-12.1605
▁2-6	-12.1605
▁144	-12.1608
Of	-12.1608
cad	-12.1617
▁7.9	-12.1618
_2879	-12.163
_2066	-12.1631
▁301	-12.1637
▁revenues	-12.1637
▁Bas	-12.1639
▁166	-12.1646
050	-12.1663
walt	-12.1664
▁aircrafts	-12.1664
4-2"	-12.1669
6890_	-12.1671
ková	-12.1674
9_4	-12.1675
angle	-12.1681
▁"$2	-12.1681
_25800134_	-12.169
46030	-12.1694
sung	-12.1698
▁1979"	-12.1714
zik	-12.1717
-35	-12.1727
▁couples	-12.1727
OST	-12.1728
agar	-12.173
_278	-12.1734
occ	-12.1743
stops	-12.1759
▁offer	-12.1762
pg	-12.1769
FR	-12.1773
▁46.	-12.1777
democrat	-12.1786
864	-12.1786
wicket	-12.1789
▁cole	-12.1802
haya	-12.1806
contents	-12.181
▁mid	-12.182
DI	-12.1825
▁barr	-12.1829
▁adult	-12.1832
pain	-12.1832
space	-12.1848
ility	-12.1848
hindi	-12.185
hungary	-12.185
conservative	-12.1851
horizontal	-12.1851
instrument	-12.1851
london	-12.1852
muzzle	-12.1852
Richard	-12.1853
association	-12.1853
policy	-12.1853
Kansas	-12.1855
.95"	-12.1855
barangay	-12.1855
drum	-12.1856
attribute	-12.1856
cultural	-12.1856
social	-12.1856
francisco	-12.1857
Andrew	-12.1857
Kentucky	-12.1858
Pennsylvania	-12.1858
canadian	-12.1858
batting	-12.186
Member	-12.186
Mountain	-12.186
reaction	-12.1861
Republican	-12.1861
aggregate	-12.1862
membership	-12.1863
celebrit	-12.1863
International	-12.1863
movie	-12.1864
displacement	-12.1864
shirt	-12.1864
YEAR	-12.1865
destination	-12.1865
College	-12.1866
tamil	-12.1866
russian	-12.1867
cities	-12.1871
stamp	-12.1876
▁146	-12.1878
sho	-12.1878
talia	-12.1881
Time	-12.1881
design	-12.1885
case	-12.1885
lash	-12.1888
▁cano	-12.189
fu	-12.1892
when	-12.1895
FM	-12.1895
_2559	-12.1901
issued	-12.1903
rice	-12.1909
users	-12.192
isi	-12.1922
TC	-12.193
tong	-12.1934
1–8	-12.1941
2444	-12.1944
edu	-12.1959
conf	-12.1961
Events	-12.1961
oving	-12.1962
tied	-12.1969
laure	-12.1985
nim	-12.1988
Tom	-12.1993
▁2-4	-12.1998
jimm	-12.2016
holm	-12.2019
bike	-12.2022
756	-12.2024
immera	-12.2025
▁Dev	-12.2029
30_2	-12.2034
_1610	-12.2037
▁340	-12.2037
ivan	-12.2037
masters	-12.2037
lows	-12.204
6336	-12.2047
pac	-12.2049
ikes	-12.2052
gate	-12.2053
▁One	-12.2061
▁move	-12.2066
characters	-12.2069
amal	-12.2069
that	-12.207
equ	-12.2074
viewed	-12.2075
▁THA	-12.2081
wta	-12.2091
▁6.6	-12.2092
holme	-12.2109
rf	-12.2112
amar	-12.2114
1748	-12.2118
elegate	-12.2135
▁My	-12.2142
375_1	-12.2144
fri	-12.2145
▁gil	-12.2153
2531	-12.217
▁sep	-12.2188
tian	-12.2188
▁mt	-12.2189
▁Olympic	-12.2198
▁apartment	-12.2198
attempt	-12.2199
rivers	-12.2206
minute	-12.2207
colours	-12.221
ethan	-12.2211
_1341453_4	-12.2221
▁App	-12.2227
udd	-12.2235
Log	-12.2236
patric	-12.2236
BI	-12.2237
▁Make	-12.2238
bulgaria	-12.224
ér	-12.2245
aintenance	-12.2247
1638	-12.2247
▁produce	-12.225
▁follow	-12.2251
clair	-12.2253
0-8	-12.2256
emorial	-12.2258
nesian	-12.226
conferenc	-12.2261
anadian	-12.2261
ensity	-12.2261
▁Jackson	-12.2264
complaint	-12.2265
participant	-12.2265
herman	-12.2265
nterview	-12.2266
inibining	-12.2266
vision	-12.2266
▁Queen	-12.2268
▁compulsory	-12.2268
▁monounsaturated	-12.2268
saturated	-12.2268
ANCE	-12.2268
Mississippi	-12.2268
Publishe	-12.2268
Volume	-12.2268
_11274401_	-12.2268
_11959669_	-12.2268
_13399573_	-12.2268
_1353096_	-12.2268
_1566848_	-12.2268
_15869204_	-12.2268
_16201038_	-12.2268
_1676073_1	-12.2268
_1825751_	-12.2268
_1876825_	-12.2268
_18904831_	-12.2268
_19072602_	-12.2268
_19149550_	-12.2268
_19763199_	-12.2268
_20170644_	-12.2268
_2076608_	-12.2268
_2150151	-12.2268
_2182562_	-12.2268
_224963	-12.2268
_22834834_	-12.2268
_23248869_	-12.2268
_24222929_	-12.2268
_24781886_	-12.2268
_2501754_	-12.2268
_26614365_	-12.2268
_27303975_	-12.2268
_27383390_	-12.2268
_27539272_	-12.2268
_27882867_	-12.2268
_30058355_	-12.2268
collision	-12.2268
dependence	-12.2268
dissolved	-12.2268
economic	-12.2268
hungarian	-12.2268
iddlesbrough	-12.2268
manhattan	-12.2268
milwaukee	-12.2268
narrator	-12.2268
parameter	-12.2268
phrase	-12.2268
veteran	-12.2268
vuelta	-12.2268
yankton	-12.2268
▁ALBUM	-12.2268
▁APPELLATION	-12.2268
▁Academy	-12.2268
▁COURSE	-12.2268
▁Constituency	-12.2268
▁Distance	-12.2268
▁Edition	-12.2268
▁Express	-12.2268
▁GENRE	-12.2268
▁Latitude	-12.2268
▁Picture	-12.2268
▁Tonnage	-12.2268
▁entertainment	-12.2268
▁flames	-12.2268
▁participle	-12.2268
▁phonetic	-12.2268
▁shoulder	-12.2268
_11961582_	-12.2268
_17001658_	-12.2268
_17118657_	-12.2268
_23248910_	-12.2268
_27713583_	-12.2268
_27755784_	-12.2268
asmussen	-12.2268
commenced	-12.2268
corporation	-12.2268
discovery	-12.2268
environment	-12.2268
participation	-12.2268
ralph	-12.2268
▁Belgium	-12.2268
▁Walker	-12.2268
▁ordained	-12.2268
_26914076_	-12.2268
iggins	-12.2268
mclaren	-12.2268
negative	-12.2268
niqqud	-12.2268
saturn	-12.2268
▁FIF	-12.2268
▁Index	-12.2268
▁Vikings	-12.2268
_10812938_	-12.2268
_1341973_	-12.2268
decimal	-12.2268
Donald	-12.2268
_19948664_	-12.2268
canyon	-12.2268
travis	-12.2268
ucla	-12.2268
▁cycle	-12.2268
Morgan	-12.2268
_157960	-12.2268
etails	-12.2268
_11658094_	-12.2268
bottom	-12.2268
iscumb	-12.2268
▁Olivi	-12.2268
Prime	-12.2268
▁(7–5)	-12.2268
kelly	-12.2268
2275654	-12.2268
belgium	-12.2268
inflation	-12.2268
fraction	-12.2268
▁Labor	-12.2268
introductory	-12.2268
▁viewing	-12.2268
▁assignedto	-12.2268
▁Lewis	-12.2268
Samuel	-12.2268
▁engineering	-12.2268
▁Anderson	-12.2268
▁GEO	-12.2268
fluenc	-12.2268
▁buses	-12.2268
_24545	-12.2268
Phone	-12.2268
_17103	-12.2268
dublin	-12.2268
▁harris	-12.2268
▁genitive	-12.2268
Kirk	-12.2268
▁Back	-12.2268
▁argon	-12.2268
▁sánchez	-12.2268
eservations	-12.2268
▁ART	-12.2268
hammad	-12.2268
▁semimajor	-12.2268
__18_49_	-12.2269
Death	-12.2269
hunter	-12.2269
gmt	-12.2269
yuji	-12.2269
▁0–3	-12.2269
aples	-12.2269
Calgary	-12.227
▁"3–0"	-12.227
leonard	-12.227
▁Giants	-12.227
▁Ryan	-12.227
▁Islanders	-12.227
▁"2005"	-12.227
▁(11)"	-12.227
▁6.5	-12.2271
-68=2	-12.2271
▁southeast	-12.2271
▁hits	-12.2271
▁Bike	-12.2271
▁Ross	-12.2272
fullback	-12.2272
▁orange	-12.2272
volleyball	-12.2273
▁QF	-12.2273
▁browsers	-12.2273
▁Cuts	-12.2274
▁Mason	-12.2274
oregon	-12.2275
marcus	-12.2275
▁kong	-12.2275
▁4-0	-12.2275
▁longest	-12.2276
]]	-12.2276
limited	-12.2276
pension	-12.2276
arte	-12.2276
_12094	-12.2276
ürt	-12.2277
▁bookings	-12.2277
_16390	-12.2277
_22753	-12.2278
utton	-12.2278
graeme	-12.2278
_29273	-12.2278
81578_	-12.2279
▁"1:1	-12.2279
spread	-12.2279
_14997	-12.2279
atms	-12.228
▁wells	-12.228
▁tuesday	-12.2281
▁decor	-12.2281
▁(4)"	-12.2281
▁Malaysia	-12.2282
▁strain	-12.2283
arabs	-12.2283
followers	-12.2284
▁(2010)	-12.2284
8428	-12.2285
▁Barry	-12.2285
174162	-12.2286
bound	-12.2287
remixed	-12.2287
ilian	-12.2287
chuk	-12.2287
_22825	-12.229
pairs	-12.229
▁(31)	-12.229
601_2	-12.2291
▁AAA	-12.2292
▁1936	-12.2292
bg	-12.2293
▁going	-12.2293
▁highway	-12.2294
_24565004_1	-12.2295
romanian	-12.2296
pair	-12.2296
▁statement	-12.2297
▁bb	-12.2297
▁"2-3	-12.23
Market	-12.2301
▁juri	-12.2301
swedish	-12.2301
Contents	-12.2301
▁1925	-12.2302
kath	-12.2302
horsepower	-12.2304
wight	-12.2304
abilit	-12.2305
aff	-12.2305
ume	-12.2307
▁African	-12.2309
_27615	-12.2309
24850	-12.231
cum	-12.231
_25572	-12.2311
▁"36"	-12.2311
_2930	-12.2316
▁mary	-12.2316
arter	-12.2316
baseman	-12.2321
_1307	-12.2326
gc	-12.2328
▁1911	-12.2328
_18646	-12.2329
_25030512_4	-12.2329
Right	-12.233
▁7.2	-12.2333
_2405	-12.2333
gang	-12.2333
▁municipal	-12.2337
_1709	-12.2337
▁Nebraska	-12.2337
▁aggressive	-12.2337
nec	-12.2337
▁Olympics	-12.2338
_1527	-12.2338
_1727	-12.2339
bryan	-12.2339
_2040	-12.2345
Luis	-12.2346
9921	-12.2346
▁youth	-12.2346
hristianity	-12.235
▁2016	-12.235
quan	-12.2351
_1430	-12.2356
▁motorsports	-12.236
Glenn	-12.2361
▁colts	-12.2362
673_1	-12.2362
5914	-12.2363
Denomination	-12.2366
54821	-12.2371
_2324	-12.2371
76080	-12.2371
▁(%)	-12.2373
kle	-12.2374
Bowling	-12.2374
▁organizations	-12.2375
▁"1986	-12.2379
▁tire	-12.238
▁"#1	-12.2381
▁224	-12.2381
152_1	-12.2387
approved	-12.2388
▁346	-12.2389
mason	-12.2396
_17838	-12.2396
▁wings	-12.2396
Box	-12.24
discs	-12.24
▁join	-12.2401
_21821	-12.2402
606_1	-12.2408
▁14.2	-12.2411
Curt	-12.2412
7826_1	-12.2413
▁rad	-12.2413
▁eco	-12.2414
pad	-12.2427
5380	-12.2434
Num	-12.2434
▁perpetrators	-12.2435
denis	-12.244
_2725	-12.2441
allsign	-12.2442
_1986	-12.2444
DA	-12.2446
▁1930	-12.2448
ohl	-12.2448
Passengers	-12.2467
ping	-12.2468
asts	-12.247
▁blues	-12.2473
▁instructors	-12.248
_1200	-12.2488
logan	-12.2488
auto	-12.2491
▁(9)	-12.2495
-36	-12.2501
toshi	-12.2505
▁prom	-12.2507
▁jobs	-12.2511
▁Lau	-12.2515
▁delegates	-12.2518
568_1	-12.2518
_1682	-12.2522
goalie	-12.2527
_2977	-12.2529
▁Jimm	-12.253
–0?	-12.2532
_15_16	-12.2539
files	-12.2543
_1966	-12.2545
_2339	-12.2545
▁programs	-12.2545
▁158	-12.2546
esley	-12.2549
él	-12.255
stems	-12.2551
tip	-12.2557
▁EP	-12.2559
▁Whit	-12.2561
▁aaa	-12.2561
_19210	-12.2567
henri	-12.257
orwich	-12.257
PS	-12.257
10294	-12.2572
_12261	-12.2573
ellington	-12.2573
love	-12.2575
▁Test	-12.2581
_2639	-12.259
▁serve	-12.2602
3,000	-12.2604
35_3	-12.2605
_1342256_3	-12.2608
dana	-12.2614
rnest	-12.2614
2771	-12.2619
Alex	-12.2619
▁4-1	-12.262
▁React	-12.2623
_1059	-12.2623
There	-12.2626
Theme	-12.2628
_3001	-12.2635
AUS	-12.2636
▁means	-12.264
5929	-12.2648
14_2	-12.2648
▁thi	-12.2659
_256286_4	-12.2663
▁5.6	-12.2681
penn	-12.2685
chern	-12.2696
▁+3	-12.27
▁Ram	-12.2705
34801	-12.271
buen	-12.2711
87_5	-12.2711
lec	-12.2715
_23284271_	-12.272
233_1	-12.2723
037	-12.2734
1830	-12.2735
ynard	-12.2735
ulla	-12.2741
822_1	-12.2742
26702	-12.275
▁trial	-12.2755
8810	-12.2764
2313_	-12.277
▁149	-12.2781
▁Yo	-12.2783
bore	-12.2792
▁Gro	-12.2793
dad	-12.2793
based	-12.2794
otto	-12.2796
51_5	-12.2802
_1827	-12.2804
NC	-12.2806
here	-12.2818
-69=2	-12.282
hoo	-12.2829
MW	-12.2832
cores	-12.2837
_2542	-12.284
▁6-1	-12.2855
▁Browns	-12.2855
▁Shin	-12.2856
▁325	-12.2857
SU	-12.2862
▁5-1	-12.2866
760_1	-12.2874
21514	-12.2876
_25800134_1	-12.2881
ulli	-12.2888
_1688	-12.2888
llion	-12.2891
iso	-12.2894
▁pit	-12.2896
lner	-12.2899
-85	-12.2903
single	-12.2906
electorate	-12.2907
fro	-12.2914
TE	-12.2917
59269	-12.2921
_2828	-12.2922
457_1	-12.2927
▁"2.5	-12.2943
ehl	-12.2945
▁HD	-12.2948
7%"	-12.2949
eastern	-12.296
cosworth	-12.2961
grant	-12.2963
Louisiana	-12.2963
saturday	-12.2963
howard	-12.2965
Allergy	-12.2966
transmitter	-12.2966
camera	-12.2968
turbo	-12.2969
unaffected	-12.2971
Boston	-12.2971
Democratic	-12.2971
preliminary	-12.2971
Africa	-12.2971
spouse	-12.2972
internet	-12.2973
battle	-12.2973
Smith	-12.2973
railway	-12.2973
developer	-12.2974
human	-12.2974
Final	-12.2974
Population	-12.2975
▁4-2	-12.2976
cyrillic	-12.2976
Nationality	-12.2976
dvd	-12.2977
Location	-12.2977
Height	-12.2977
forename	-12.2978
trans	-12.2979
johnson	-12.2981
Indiana	-12.2982
Kim	-12.2984
stock	-12.2984
▁Roger	-12.2985
polling	-12.2985
aspect	-12.2989
enti	-12.2991
pul	-12.2995
II	-12.3
▁268	-12.3001
663_1	-12.3003
Char	-12.3003
milan	-12.3012
4804	-12.3017
cot	-12.3019
91_3	-12.302
974_1	-12.3032
02_2	-12.3039
69766	-12.304
1964"	-12.3044
WC	-12.3045
245	-12.306
Lu	-12.3065
▁Ron	-12.3069
full	-12.307
_15463188_	-12.3071
▁matchup	-12.3074
wis	-12.3076
_1342149_	-12.3077
platforms	-12.3079
ogan	-12.3093
loc	-12.3096
lesson	-12.3098
_2750	-12.3099
rei	-12.3114
shot	-12.3127
ilbert	-12.3128
▁Main	-12.3134
50_3	-12.3142
▁Fast	-12.3143
_2267	-12.3147
Frank	-12.3148
475	-12.3149
pages	-12.3152
rol	-12.3153
paragraph	-12.3154
▁Mill	-12.316
pk	-12.3167
17.1	-12.3172
006	-12.3174
ingham	-12.3179
_16799784_1	-12.3202
4831	-12.3217
_1497	-12.3218
indu	-12.3221
142	-12.3221
SV	-12.3227
485	-12.3228
bora	-12.3229
▁Out	-12.3229
▁Flo	-12.323
_1341604_1	-12.324
Penn	-12.3242
185	-12.3247
6068	-12.3248
ERS	-12.3255
▁228	-12.3259
naga	-12.3266
Kar	-12.3271
Fort	-12.3273
1978_1	-12.3276
lei	-12.328
_28138035_2	-12.3281
_2140071_	-12.3282
Chris	-12.3284
hanna	-12.3293
▁cata	-12.3298
reen	-12.3298
IP	-12.3301
▁sort	-12.3303
kara	-12.3305
▁kana	-12.3306
3655	-12.3309
tual	-12.3311
▁viewer	-12.3312
_22897	-12.3317
35.7	-12.3321
▁Harris	-12.3322
dj	-12.3327
Red	-12.3329
fle	-12.3331
cook	-12.3331
akota	-12.3332
▁char	-12.3338
2353	-12.3342
onica	-12.3347
llan	-12.3351
▁sv	-12.3356
specific	-12.3358
kie	-12.3359
large	-12.336
_13762472_	-12.337
_23308178_	-12.337
pparent	-12.337
▁operate	-12.3372
enterfold	-12.3372
communit	-12.3374
▁element	-12.3374
Participant	-12.3376
orsche	-12.3377
ocomotive	-12.3377
▁700	-12.3377
▁Wall	-12.3377
transmitt	-12.3377
israel	-12.3377
reservation	-12.3378
▁Premier	-12.3378
▁Municipal	-12.3378
▁swim	-12.3378
associate	-12.3378
naffected	-12.3379
vietnam	-12.3379
_210911	-12.3379
▁Republic	-12.3379
caribbean	-12.3379
▁"2004-0	-12.3379
chromosom	-12.3379
ehavior	-12.3379
harmony	-12.3379
portuguese	-12.3379
scientific	-12.3379
widow	-12.3379
▁Accreditation	-12.3379
▁Aug	-12.3379
▁dolphins	-12.3379
▁wildcats	-12.3379
Aberdeen	-12.3379
Birmingham	-12.3379
Brandon	-12.3379
Chevrolet	-12.3379
Claude	-12.3379
Committee	-12.3379
Nominated	-12.3379
Reference	-12.3379
_11207040_	-12.3379
_11222744_	-12.3379
_11662133_	-12.3379
_1342338_	-12.3379
_14242137_	-12.3379
_14342367_1	-12.3379
_14981555_	-12.3379
_16432543_	-12.3379
_1708014_	-12.3379
_17323042_	-12.3379
_18278508_	-12.3379
_18894744_	-12.3379
_19412902_	-12.3379
_19753079_4	-12.3379
_20683381_	-12.3379
_21100348_1	-12.3379
_2147588_	-12.3379
_22347090_	-12.3379
_23186738_	-12.3379
_23281862_	-12.3379
_23453931_	-12.3379
_23680576_	-12.3379
_24108789_	-12.3379
_25220821_	-12.3379
_2581397_	-12.3379
_26375386_1	-12.3379
_26615633_	-12.3379
_27537518_	-12.3379
_27722408_	-12.3379
_27862483_	-12.3379
_28068063_	-12.3379
_28243691_	-12.3379
_28286776_5	-12.3379
_28744929_	-12.3379
_2985664_8	-12.3379
analysis	-12.3379
announce	-12.3379
avendish	-12.3379
bristol	-12.3379
comprehension	-12.3379
ergative	-12.3379
estimation	-12.3379
hexadecimal	-12.3379
kawasaki	-12.3379
leksandr	-12.3379
nebraska	-12.3379
ography	-12.3379
portugal	-12.3379
syracuse	-12.3379
talbot	-12.3379
thickness	-12.3379
tottenham	-12.3379
trinidad	-12.3379
▁Bishop	-12.3379
▁Brabham	-12.3379
▁Brisbane	-12.3379
▁Constellation	-12.3379
▁Cowboys	-12.3379
▁Falcons	-12.3379
▁GAME	-12.3379
▁PLACE	-12.3379
▁Pilipinas	-12.3379
▁Research	-12.3379
▁Singapore	-12.3379
▁Thompson	-12.3379
▁Yugoslavia	-12.3379
▁assumed	-12.3379
▁bennett	-12.3379
▁business	-12.3379
▁combativity	-12.3379
▁coulthard	-12.3379
▁floyd	-12.3379
▁kennedy	-12.3379
▁kyrkje	-12.3379
▁mickelson	-12.3379
▁murphy	-12.3379
▁qualifier	-12.3379
▁replica	-12.3379
▁trevino	-12.3379
▁vendor	-12.3379
Liberal	-12.3379
Madison	-12.3379
_1973729_	-12.3379
▁bengals	-12.3379
▁managed	-12.3379
▁milepost	-12.3379
deputies	-12.3379
sunderland	-12.3379
▁Candidate	-12.3379
▁husband	-12.3379
_114010	-12.3379
oncordia	-12.3379
sopot	-12.3379
Brighton	-12.3379
_191105_	-12.3379
▁Sabres	-12.3379
_280051	-12.3379
cyclones	-12.3379
sabha	-12.3379
▁basic	-12.3379
▁turner	-12.3379
▁ovrs	-12.3379
Double	-12.3379
Submission	-12.3379
▁Guest	-12.3379
_209286	-12.3379
censo	-12.3379
donald	-12.3379
ladder	-12.3379
▁"2006-0	-12.3379
▁proceed	-12.3379
freshwater	-12.3379
▁fcsl	-12.3379
tokyo	-12.3379
Manager	-12.3379
▁Leafs	-12.3379
▁Creek	-12.3379
Walter	-12.3379
▁Wales	-12.3379
▁"2013"	-12.3379
Justin	-12.3379
▁Gregory	-12.3379
wallace	-12.3379
▁riding	-12.3379
_2668243_2	-12.3379
río	-12.3379
_160510_	-12.3379
Middle	-12.3379
▁Born	-12.3379
Denmark	-12.3379
_229047	-12.3379
▁Playoffs	-12.3379
_28540	-12.3379
://	-12.3379
▁Viewers	-12.3379
_19017	-12.3379
panama	-12.3379
▁Police	-12.3379
christophe	-12.3379
claudi	-12.3379
▁prescribe	-12.3379
▁petal	-12.3379
_2668347_1	-12.3379
_274873	-12.3379
_113769	-12.3379
▁nationalities	-12.3379
Emma	-12.3379
▁herbert	-12.338
▁Bears	-12.338
NCAA	-12.338
_10812	-12.338
1995-96	-12.338
Editor	-12.338
Credit	-12.338
▁Quad	-12.338
▁centen	-12.338
traction	-12.338
▁Franklin	-12.338
rederick	-12.338
float	-12.338
▁irwin	-12.338
▁(27)"	-12.338
▁santiago	-12.338
▁(16)"	-12.338
senate	-12.338
taoiseach	-12.338
▁"1999"	-12.338
▁mitchell	-12.338
▁"1998"	-12.338
AWA	-12.338
▁spirit	-12.3381
bolton	-12.3381
andretti	-12.3381
▁Juan	-12.3381
inducted	-12.3381
▁dollars	-12.3381
▁BBC	-12.3381
blazers	-12.3381
Assets	-12.3381
sergi	-12.3381
Wallace	-12.3381
▁premises	-12.3381
▁dragons	-12.3381
▁"2–0"	-12.3381
germanic	-12.3381
▁fumble	-12.3381
▁achieved	-12.3382
ligue	-12.3382
▁Wilson	-12.3382
50806	-12.3382
Giant	-12.3382
▁stump	-12.3382
Carrier	-12.3382
reis	-12.3382
jiang	-12.3382
nasl	-12.3382
04240	-12.3382
verted	-12.3383
_27361	-12.3383
▁Indians	-12.3383
promotion	-12.3383
aAAAA	-12.3384
_288989	-12.3384
▁sepal	-12.3384
_18207	-12.3384
▁System	-12.3384
mozilla	-12.3385
▁Singh	-12.3386
_11621	-12.3386
▁Lock	-12.3386
▁rubi	-12.3386
▁skat	-12.3387
corinthians	-12.3387
Died	-12.3388
artial	-12.3388
▁34.4	-12.3388
athlon	-12.3389
▁Clarke	-12.3389
▁5-0	-12.3389
▁previously	-12.339
▁"2002"	-12.339
indonesia	-12.339
▁dogs	-12.339
_30108	-12.3391
emma	-12.3391
bedType	-12.3391
__2003_	-12.3391
▁"2006"	-12.3392
kingston	-12.3392
▁awardee	-12.3392
▁"2–1"	-12.3392
ICH	-12.3393
▁Tyre	-12.3393
_2538117_	-12.3393
centric	-12.3393
20737	-12.3394
_20396	-12.3394
▁"1968	-12.3394
duchess	-12.3394
Bruce	-12.3395
39.1	-12.3395
othy	-12.3396
▁"7–5	-12.3396
lower	-12.3397
_24126	-12.3397
_25703_	-12.3398
▁(3)"	-12.3398
_11390	-12.3398
_29545	-12.3399
038_1	-12.3399
_24099	-12.34
▁Live	-12.34
_18733	-12.3401
16000	-12.3402
maintenance	-12.3402
robertson	-12.3402
▁younger	-12.3403
Get	-12.3403
mmons	-12.3403
_26914	-12.3404
mariners	-12.3405
20786	-12.3406
_26263	-12.3407
▁mall	-12.3407
0.00%	-12.3407
▁Revenue	-12.3407
teleplay	-12.3407
1545	-12.3408
enalla	-12.3409
3505	-12.341
niki	-12.341
_18018214_	-12.341
▁moon	-12.3412
_21500	-12.3413
_17652	-12.3413
88823_	-12.3413
▁HIGHE	-12.3414
Clean	-12.3415
slovenes	-12.3416
▁Leonard	-12.3416
▁Grant	-12.3417
22383	-12.3418
_24910733_	-12.3419
staying	-12.3419
17718	-12.3419
load	-12.342
_1541	-12.342
Duke	-12.342
▁"47"	-12.3421
_2052	-12.3421
_2768	-12.3422
Logan	-12.3423
Friendly	-12.3424
_2458	-12.3424
▁"41"	-12.3425
▁maro	-12.3426
gnis	-12.3429
915_1	-12.3429
cape	-12.3429
10459_	-12.343
mack	-12.3431
solo	-12.3432
11676	-12.3433
ahia	-12.3434
preference	-12.3436
_2846	-12.3439
broad	-12.3441
_1140116_	-12.3444
0362	-12.3445
companion	-12.3445
gur	-12.3445
_2675	-12.3446
_27155	-12.3446
▁"35"	-12.3447
paid	-12.3447
purchased	-12.3447
(2007)	-12.3448
aik	-12.3448
2827	-12.3448
Fabi	-12.3453
lg	-12.3454
spira	-12.3456
8716	-12.3456
-72=28	-12.3458
▁Emer	-12.3461
▁Jays	-12.3466
berry	-12.3467
761_1	-12.3468
workers	-12.3469
_2140071_1	-12.3469
▁webb	-12.3469
07_11	-12.3473
Ed	-12.3473
airns	-12.3473
1977"	-12.3475
28.5	-12.3475
840_1	-12.3476
51643_	-12.3479
roof	-12.348
▁1:00	-12.3481
Paper	-12.3481
▁Others	-12.3483
1894	-12.3484
▁7.1	-12.3486
phoneme	-12.3488
653_1	-12.3489
▁HC	-12.3489
_1213	-12.349
▁carriers	-12.3491
_2402	-12.3492
109495	-12.3496
_170859	-12.3497
▁Fair	-12.3506
▁enzymes	-12.3508
▁Digit	-12.3509
_21977	-12.3509
▁Bus	-12.351
ercentage	-12.3513
prev	-12.3513
–13"	-12.3515
Reserved	-12.3518
steps	-12.3521
mill	-12.3522
3658	-12.3524
▁televotes	-12.3525
dock	-12.3527
mega	-12.3527
▁Plate	-12.3532
onroe	-12.3536
▁1906	-12.3538
valent	-12.3538
_2743	-12.3541
▁Albums	-12.3542
▁Jul	-12.3543
Col	-12.355
18475	-12.3551
lq	-12.3553
▁1766	-12.3556
azz	-12.3559
▁"56"	-12.3561
13–1	-12.3561
ibis	-12.3561
50383	-12.3574
▁Terry	-12.3575
▁1–2	-12.3583
▁Leon	-12.3585
elph	-12.3586
▁Runs	-12.3586
rado	-12.3588
32845	-12.3588
▁tackles	-12.3593
aragraphs	-12.3609
▁numer	-12.361
27969	-12.3622
–49	-12.3622
affir	-12.3625
philip	-12.3631
53681	-12.3632
holding	-12.3634
vick	-12.3638
Carlo	-12.3645
▁1887	-12.3647
_2167	-12.3651
_2213	-12.3654
pton	-12.3659
partnership	-12.3659
ranga	-12.3662
otogp	-12.3666
▁Eli	-12.3685
iero	-12.3686
_1547	-12.3688
8607	-12.3688
webm	-12.3689
NS	-12.3689
▁Rou	-12.369
▁1851	-12.3691
1872	-12.3692
ricket	-12.3694
_15463188_1	-12.3697
ible	-12.3697
▁"250	-12.3703
than	-12.3704
▁staten	-12.371
_1563	-12.3714
22263	-12.3723
▁315	-12.3731
5982	-12.3734
_1394	-12.3737
▁5:	-12.3738
mong	-12.3738
▁Off	-12.3744
dean	-12.3748
fumb	-12.3761
▁Met	-12.3763
_27713030_1	-12.3771
_2472	-12.3775
_11734041_2	-12.378
erra	-12.3783
▁"1:4	-12.3786
1049	-12.3787
pete	-12.3799
Arc	-12.3805
7063	-12.3807
13940	-12.3808
_1341598_	-12.3813
_2668352_1	-12.3816
_2114	-12.3821
tobi	-12.3822
▁20–1	-12.3825
_2260	-12.3826
eterborough	-12.3835
_27756314_	-12.3844
pok	-12.3851
_1341586_	-12.3853
1495	-12.3854
agon	-12.3861
Rosa	-12.3865
roe	-12.3865
6504	-12.3869
2793	-12.387
amil	-12.3872
UL	-12.3878
6060	-12.388
_1108394_	-12.3882
29574	-12.3883
marriages	-12.3888
seve	-12.389
▁"1:5	-12.389
yatt	-12.3894
kak	-12.3896
ugge	-12.3898
rot	-12.3901
fia	-12.3901
▁Burn	-12.3902
886_1	-12.3903
306	-12.3909
court	-12.3911
bx	-12.3916
▁4.7	-12.3917
_1341423_2	-12.3928
▁Hart	-12.3936
140099	-12.3945
_1805	-12.3951
▁206	-12.3959
▁Un	-12.3965
2983	-12.3967
_19401	-12.3972
482_1	-12.3976
3672	-12.3982
kills	-12.3985
_1410	-12.3988
skill	-12.3988
-32	-12.3994
_2448	-12.4001
▁Christ	-12.4003
eira	-12.4003
▁Leg	-12.4005
_1342256_1	-12.4022
3097	-12.4033
1–6	-12.4041
1284	-12.4051
:45	-12.4055
omari	-12.4056
▁Mad	-12.4065
mah	-12.4066
▁318	-12.4066
(0-1)"	-12.4068
ober	-12.4075
▁"350	-12.4075
7:00	-12.4077
urg	-12.408
▁3-6	-12.4081
▁ryd	-12.4082
him	-12.4082
cile	-12.4095
taffel	-12.4096
troops	-12.4099
▁"2.4	-12.4103
_1569	-12.4115
amada	-12.412
llery	-12.4121
_27756314_1	-12.4127
ubert	-12.414
_1341453_1	-12.4143
_20174050_2	-12.4144
1538	-12.415
women	-12.4153
_1341598_1	-12.4159
playoff	-12.416
til	-12.4165
ashi	-12.4172
wai	-12.4179
9402	-12.418
6824	-12.4184
▁229	-12.4184
clination	-12.419
_1348	-12.4197
ová	-12.42
iffe	-12.4205
policies	-12.4211
Champions	-12.4212
Railway	-12.4212
Utah	-12.4212
acquired	-12.4212
commission	-12.4213
military	-12.4214
media	-12.4214
government	-12.4215
closed	-12.4215
bullet	-12.4217
illinois	-12.4218
found	-12.4218
abbreviation	-12.4218
blank	-12.4218
domestic	-12.4219
China	-12.4219
Florida	-12.4219
cinema	-12.422
architect	-12.422
background	-12.422
plural	-12.422
Play	-12.422
civil	-12.4221
advisor	-12.4221
California	-12.4221
semester	-12.4221
soccer	-12.4221
River	-12.4221
killed	-12.4222
machine	-12.4222
socialist	-12.4222
▁BB	-12.4223
Illinois	-12.4223
parent	-12.4223
Greg	-12.4224
Rate	-12.4224
voltage	-12.4224
roduction	-12.4224
package	-12.4225
Notes	-12.4225
racing	-12.4227
Open	-12.4227
cargo	-12.4227
independent	-12.4227
bmw	-12.4228
delegate	-12.4231
shell	-12.4231
2439	-12.4232
sunk	-12.4232
8295	-12.4233
poor	-12.4233
nv	-12.4234
minor	-12.4244
bulgarian	-12.4247
mpg	-12.425
iate	-12.4251
2715	-12.4251
Dest	-12.4257
headquarters	-12.4268
swimmer	-12.4271
2–7	-12.4278
mlb	-12.428
whit	-12.4282
afc	-12.4287
1112	-12.4292
elk	-12.43
_2462	-12.4302
bbi	-12.4311
ordered	-12.4323
▁Bea	-12.433
_17304	-12.4348
dell	-12.435
629_2	-12.4353
4169_	-12.4359
ivo	-12.4364
8.06	-12.4367
▁0.9	-12.4375
Belle	-12.4392
laine	-12.4393
bis	-12.4398
ravel	-12.44
▁5.9	-12.441
91_4	-12.4415
come	-12.4417
Singer	-12.4423
_12962773_	-12.4425
▁Ali	-12.4446
▁byu	-12.4467
beth	-12.4468
▁"$4	-12.4479
pack	-12.448
6884	-12.4483
453_1	-12.4489
_24915	-12.4494
27529	-12.4495
arc	-12.4497
▁1:0	-12.4498
▁2.7	-12.4501
lina	-12.4502
_1342218_1	-12.4513
136	-12.4514
858	-12.4518
▁Bye	-12.4525
zach	-12.4543
ular	-12.4546
▁salo	-12.4548
_1243	-12.4549
▁purchase	-12.4552
honor	-12.4556
▁cylinder	-12.4558
▁Owner	-12.4559
hui	-12.456
_1245	-12.4563
terra	-12.4564
▁Ju	-12.4564
8.9%	-12.4572
▁spa	-12.4572
▁Anna	-12.4575
Ol	-12.4585
dependent	-12.4589
2970	-12.4595
ugo	-12.4604
_25042332_	-12.4606
entium	-12.4606
_26202	-12.4609
inyin	-12.4612
▁expens	-12.4614
ddr	-12.4616
ification	-12.4616
_27539535_	-12.4618
esidence	-12.4621
Day	-12.4623
▁interact	-12.4623
▁Launch	-12.4624
premise	-12.4626
oorabbin	-12.4626
inancial	-12.4626
ardinalatial	-12.4627
dragon	-12.4627
enjamin	-12.4627
_25711913_	-12.4628
Headquarter	-12.4628
▁Democrat	-12.4628
availability	-12.4628
distinguished	-12.4629
_1984697_	-12.4629
wolver	-12.4629
▁Mercedes	-12.4629
▁courtesy	-12.4629
alternative	-12.4629
compression	-12.4629
extension	-12.4629
intercontinental	-12.4629
tunnel	-12.4629
wisconsin	-12.4629
Ceremony	-12.4629
EMBER	-12.4629
Fernand	-12.4629
Incident	-12.4629
Liverpool	-12.4629
Requested	-12.4629
Saskatchewan	-12.4629
Simpson	-12.4629
Supplier	-12.4629
Switzerland	-12.4629
Windows	-12.4629
_10975034_	-12.4629
_11236195_	-12.4629
_12407546_	-12.4629
_12784134_	-12.4629
_1342379_2	-12.4629
_14219514_	-12.4629
_14342480_	-12.4629
_14624447_	-12.4629
_14962287_	-12.4629
_15467476_	-12.4629
_15780049_	-12.4629
_1601792_	-12.4629
_1697190_	-12.4629
_17311759_	-12.4629
_17326036_	-12.4629
_20007413_	-12.4629
_20967430_	-12.4629
_21321804_	-12.4629
_22771048_	-12.4629
_22871239_	-12.4629
_23183195_	-12.4629
_23346303_	-12.4629
_23486853_	-12.4629
_2472711_3	-12.4629
_24765815_	-12.4629
_25505246_	-12.4629
_25518547_	-12.4629
_25926120_	-12.4629
_26218783_	-12.4629
_26454128_	-12.4629
_26708105_	-12.4629
_26967904_	-12.4629
_27277284_2	-12.4629
_27756474_	-12.4629
_28628309_	-12.4629
_28768469_	-12.4629
_29556461_	-12.4629
_29626583_	-12.4629
adjusted	-12.4629
apogee	-12.4629
burglary	-12.4629
dynamo	-12.4629
ernández	-12.4629
fghanistan	-12.4629
jupiter	-12.4629
kangaroos	-12.4629
letcher	-12.4629
ljubljana	-12.4629
massachusetts	-12.4629
mechanism	-12.4629
oceani	-12.4629
philippines	-12.4629
roslav	-12.4629
saskatchewan	-12.4629
warriors	-12.4629
zionale	-12.4629
▁Alianza	-12.4629
▁Cavaliers	-12.4629
▁Challenge	-12.4629
▁Coulthard	-12.4629
▁Enter	-12.4629
▁Firefox	-12.4629
▁Murphy	-12.4629
▁Palace	-12.4629
▁Placing	-12.4629
▁Trophy	-12.4629
▁Victory	-12.4629
▁ballesteros	-12.4629
▁bombers	-12.4629
▁brussels	-12.4629
▁cluster	-12.4629
▁creek	-12.4629
▁fought	-12.4629
▁galaxy	-12.4629
▁happy	-12.4629
▁hotspur	-12.4629
▁installed	-12.4629
▁kannada	-12.4629
▁leafs	-12.4629
▁pierce	-12.4629
▁podcast	-12.4629
▁schumacher	-12.4629
▁smoke	-12.4629
▁thompson	-12.4629
▁tobago	-12.4629
▁vacuum	-12.4629
Bristol	-12.4629
_1341672_1	-12.4629
_23286223_	-12.4629
_29572583_	-12.4629
decreased	-12.4629
execution	-12.4629
fencing	-12.4629
jointly	-12.4629
madison	-12.4629
potential	-12.4629
puebl	-12.4629
▁forcible	-12.4629
▁sabres	-12.4629
Family	-12.4629
Janessa	-12.4629
Nicole	-12.4629
_253523	-12.4629
_261730	-12.4629
_2950964_	-12.4629
mslm	-12.4629
rachel	-12.4629
▁Lucas	-12.4629
▁alpha	-12.4629
▁collins	-12.4629
narayanan	-12.4629
▁Bulls	-12.4629
▁Hunter	-12.4629
▁Little	-12.4629
▁titans	-12.4629
Ontario	-12.4629
brighton	-12.4629
movements	-12.4629
obese	-12.4629
watford	-12.4629
▁Hughes	-12.4629
▁alfie	-12.4629
▁payout	-12.4629
7423_4	-12.4629
claude	-12.4629
poofed	-12.4629
-71=14	-12.4629
_180802_	-12.4629
_25244412_	-12.4629
memphis	-12.4629
premierships	-12.4629
▁Arrow	-12.4629
▁Plain	-12.4629
partisan	-12.4629
▁shipments	-12.4629
▁Qualification	-12.4629
Writer	-12.4629
fixed	-12.4629
module	-12.4629
script	-12.4629
candle	-12.4629
gearbox	-12.4629
▁McCart	-12.4629
▁crop	-12.4629
▁sensor	-12.4629
▁tanker	-12.4629
▁(1-1)	-12.4629
▁Titans	-12.4629
ebastian	-12.4629
softball	-12.4629
▁geographical	-12.4629
▁Minister	-12.4629
▁voivodeship	-12.4629
_2201724_	-12.4629
ercosur	-12.4629
vanovic	-12.4629
▁Argentina	-12.4629
▁Seoul	-12.4629
areer	-12.4629
▁maple	-12.4629
Kyle	-12.4629
alianza	-12.4629
attendees	-12.4629
olumbus	-12.4629
wansea	-12.4629
▁Electorate	-12.4629
963074	-12.4629
_171361_	-12.4629
_25129	-12.4629
▁Brewer	-12.4629
▁Professionals	-12.4629
▁architecture	-12.4629
anaheim	-12.4629
▁nadal	-12.463
celtic	-12.463
▁Wheel	-12.463
_27616	-12.463
NUM	-12.463
vesting	-12.463
dolph	-12.463
▁specification	-12.463
_2930244_	-12.463
apoel	-12.463
ijeka	-12.463
fiji	-12.463
_17562	-12.463
_28298	-12.463
sultan	-12.463
demons	-12.463
_19283	-12.463
▁fittipaldi	-12.463
_21109	-12.463
_27631	-12.463
▁(13)"	-12.463
18-49	-12.463
hamburg	-12.463
▁multiplier	-12.463
▁(15)"	-12.463
_10935	-12.4631
franklin	-12.4631
talk	-12.4631
Panther	-12.4631
▁moore	-12.4631
stockholm	-12.4631
▁devils	-12.4631
raider	-12.4631
▁Lakers	-12.4631
regon	-12.4631
romania	-12.4631
▁chosen	-12.4631
trekk	-12.4631
_11325	-12.4631
▁2007-08	-12.4631
▁2–3	-12.4631
▁Moore	-12.4632
evgen	-12.4632
_28802	-12.4632
▁BMW	-12.4632
294186	-12.4632
▁Participants	-12.4632
8420_1	-12.4632
▁Catalogue	-12.4632
▁Mario	-12.4632
tyler	-12.4633
ruben	-12.4633
▁treasurer	-12.4633
failed	-12.4633
_3012055	-12.4633
tschl	-12.4633
▁subdivision	-12.4633
▁pictures	-12.4634
_15430	-12.4634
_14003	-12.4634
bugatti	-12.4634
_24852	-12.4634
▁6-0	-12.4634
▁1–3	-12.4634
▁Oct	-12.4634
ResType	-12.4634
▁Votes	-12.4634
basti	-12.4635
ovich	-12.4635
_1355	-12.4635
▁Payments	-12.4636
Conductor	-12.4636
▁Production	-12.4636
▁Body	-12.4636
0-0"	-12.4636
microsoft	-12.4636
▁Metro	-12.4636
_17289	-12.4636
espn	-12.4636
development	-12.4637
ducati	-12.4637
–14"	-12.4637
lease	-12.4637
58.4	-12.4637
bloc	-12.4637
rochester	-12.4638
burnley	-12.4638
_207457	-12.4638
electrical	-12.4638
▁faults	-12.4638
_16815	-12.4638
rawl	-12.4638
▁strange	-12.4638
_24018	-12.4639
▁owns	-12.4639
▁Invoice	-12.464
▁Beach	-12.464
▁dame	-12.464
438	-12.464
▁Marion	-12.464
▁give	-12.464
▁Wright	-12.464
rizon	-12.464
_26218	-12.4641
_25730	-12.4641
Claimed	-12.4641
▁disposition	-12.4641
_18178	-12.4642
▁occured	-12.4642
_11340	-12.4642
kcl	-12.4642
▁domi	-12.4642
58735	-12.4643
beginning	-12.4643
kcal	-12.4643
52143	-12.4643
seoul	-12.4643
▁Bulgarian	-12.4643
llw	-12.4644
_30028	-12.4644
▁lifetime	-12.4644
4431	-12.4645
officin	-12.4645
▁gave	-12.4645
▁Hong	-12.4645
▁bass	-12.4645
-82"	-12.4646
Vijay	-12.4646
▁PLAYER	-12.4646
286722	-12.4646
▁"1.9	-12.4647
qualified	-12.4647
yarn	-12.4648
12976	-12.4648
venus	-12.4648
08184	-12.4649
▁attending	-12.4649
monza	-12.4649
▁"5%"	-12.4649
Chip	-12.4649
_11326	-12.4651
▁tight	-12.4652
heim	-12.4652
▁rings	-12.4653
_14209	-12.4653
▁roy	-12.4653
▁squared	-12.4653
_29565	-12.4653
▁Dance	-12.4654
apua	-12.4654
▁carter	-12.4654
laura	-12.4655
napoli	-12.4655
nightly	-12.4655
early	-12.4656
_162788	-12.4657
14479	-12.4657
92505	-12.4657
814_3	-12.4658
caste	-12.4658
berger	-12.4659
_)[	-12.4663
▁FAC	-12.4664
▁astr	-12.4664
_18594107_	-12.4666
motion	-12.4667
yong	-12.4668
▁border	-12.4669
▁1932	-12.4672
ía	-12.4673
714_2	-12.4673
▁ngi	-12.4674
78010	-12.4675
mach	-12.4675
▁tway	-12.4675
shark	-12.4676
soft	-12.4677
_1341	-12.4678
rendon	-12.4679
▁licensed	-12.4679
81649	-12.468
▁Pur	-12.468
_1341453_	-12.4681
Thing	-12.4685
17448_	-12.4685
Sawayn	-12.4685
_1052	-12.4686
Earl	-12.4687
▁5:00	-12.4689
▁mast	-12.469
▁(26)	-12.469
usu	-12.4691
_22905	-12.4692
4591	-12.4692
▁repair	-12.4693
▁(23)	-12.4696
carbon	-12.4696
▁substr	-12.4696
▁3.3	-12.4699
▁Owners	-12.4699
brent	-12.47
▁cylinders	-12.47
crest	-12.4701
rald	-12.4702
053_1	-12.4702
▁enr	-12.4703
prote	-12.4703
9494	-12.4704
0000.	-12.4706
057	-12.4706
▁challenger	-12.4707
quality	-12.4707
▁Vice	-12.4711
▁Esp	-12.4712
Feli	-12.4712
68_3	-12.4715
_2248	-12.4718
_1041	-12.4722
liber	-12.4723
_2612	-12.4725
▁edwards	-12.4729
▁applications	-12.4729
3880	-12.4729
_23887	-12.4731
_25538	-12.4732
▁guns	-12.4738
10127	-12.4739
blockcode	-12.4739
tai	-12.4739
rca	-12.474
▁shap	-12.4744
DW	-12.4744
_23685	-12.4745
uther	-12.4746
_1998__	-12.475
1628	-12.4756
▁Falls	-12.4757
6901	-12.4758
stant	-12.4764
▁rus	-12.4766
▁Ava	-12.4769
5732	-12.477
_2075	-12.4772
Carolin	-12.4772
_2104	-12.4774
granted	-12.4776
abul	-12.4779
23274_	-12.478
claimed	-12.4781
▁6.9	-12.4781
▁Cape	-12.4783
▁1915	-12.4786
▁devices	-12.4786
0.1%	-12.4788
lose	-12.4789
Paris	-12.4792
awa	-12.4794
supported	-12.4795
Iran	-12.48
ewski	-12.4802
ical	-12.4804
onathan	-12.4805
(2008)	-12.4805
▁aces	-12.4809
22519	-12.4812
▁1-3	-12.4814
DT	-12.4816
dun	-12.4823
East	-12.4823
kry	-12.4825
glenn	-12.4827
▁2–2	-12.4828
nicola	-12.483
.00"	-12.4833
lance	-12.4834
magi	-12.4835
_1529	-12.4838
_23812	-12.4841
27998	-12.4845
rack	-12.4849
benz	-12.4849
-919	-12.4855
gger	-12.4863
▁jess	-12.4875
3516_	-12.4878
22667	-12.4885
Julian	-12.4886
hq	-12.4887
_1912	-12.4888
3190	-12.489
▁6.1	-12.4892
▁1929	-12.4894
–10"	-12.4899
382_1	-12.4902
yut	-12.4907
5324	-12.4911
_1921	-12.4912
02100	-12.4917
ravg	-12.4924
▁3–1	-12.4929
▁Poll	-12.493
22_5	-12.4931
_13498	-12.4932
▁1910	-12.4932
Core	-12.4934
6675	-12.4938
tical	-12.4943
hired	-12.4948
▁xii	-12.4962
_28190	-12.4964
_2755	-12.4968
mption	-12.497
_24224	-12.4981
vern	-12.4983
_1409	-12.4987
lice	-12.4994
aymond	-12.5001
7.82	-12.5004
winton	-12.5014
▁"+6	-12.5014
6950	-12.5017
▁Line	-12.5019
▁307	-12.5023
_20140	-12.5024
15_2	-12.5025
uli	-12.5025
2906	-12.5028
prefectur	-12.5036
_1342149_4	-12.5042
_17356	-12.5045
OU	-12.505
saved	-12.5053
4020	-12.5063
democrats	-12.5065
umble	-12.5065
▁put	-12.5072
▁100%	-12.5073
gorie	-12.5074
owell	-12.508
rink	-12.5082
hou	-12.5083
inclination	-12.5087
▁Rogers	-12.5098
_2749	-12.5108
csu	-12.5109
▁"4-4	-12.5115
▁Yi	-12.5129
_19897294_1	-12.5136
▁Mort	-12.5137
▁105.	-12.5142
quick	-12.5149
_1818	-12.5152
GG	-12.5157
self	-12.5159
ssessment	-12.5167
11812_	-12.5173
pia	-12.5176
2991	-12.5177
_15315	-12.5179
fuji	-12.518
▁shar	-12.5192
▁hotel	-12.5212
anzi	-12.5212
640_1	-12.5213
tlético	-12.5214
maine	-12.5245
pelled	-12.5246
6–9	-12.5247
13_3	-12.5255
amba	-12.5257
-84	-12.526
178_1	-12.5261
evict	-12.5267
anji	-12.5269
_2668336_	-12.5271
_27700530_1	-12.5271
▁Ye	-12.5317
▁plate	-12.5317
9.44	-12.5318
_25042332_3	-12.5327
2547	-12.5328
_25030512_2	-12.5337
3738	-12.5338
PU	-12.5341
atio	-12.5346
tche	-12.5349
4579_	-12.5354
▁"0.8	-12.536
pons	-12.536
▁stee	-12.5369
▁305	-12.5369
_21436373_1	-12.5389
uala	-12.5395
▁Ellis	-12.5403
ryl	-12.5403
TER	-12.5424
10431	-12.5427
_25794	-12.5432
adrian	-12.5435
indley	-12.5443
▁bru	-12.5456
assessment	-12.547
plans	-12.5472
lago	-12.5479
MB	-12.5489
_24951	-12.5494
0273	-12.5495
rae	-12.5499
arron	-12.551
@	-12.5513
aps	-12.5519
ertificate	-12.552
9458	-12.5527
há	-12.5528
8313_	-12.5543
kul	-12.5551
▁UF	-12.5554
826_1	-12.5557
chim	-12.5567
54214	-12.5582
assist	-12.5584
1446	-12.5597
special	-12.5598
93892	-12.5613
▁"0.6	-12.5614
isel	-12.5626
seton	-12.5629
build	-12.5632
reserve	-12.5634
strike	-12.5637
cbi	-12.5637
oklahoma	-12.5638
yellow	-12.5638
rainfall	-12.5638
propulsion	-12.5638
eller	-12.5638
Darr	-12.5639
9°	-12.5639
governor	-12.5639
reached	-12.5639
access	-12.564
pageant	-12.564
Blue	-12.5641
edmonton	-12.5642
spanish	-12.5643
spent	-12.5644
36578	-12.5645
prolonged	-12.5646
Miami	-12.5646
dominant	-12.5646
sunday	-12.5646
carries	-12.5646
tennis	-12.5646
operating	-12.5646
Buffalo	-12.5647
screen	-12.5647
audition	-12.5647
Minnesota	-12.5647
lyricist	-12.5648
Major	-12.5649
evo	-12.5649
video	-12.5649
yacht	-12.5649
medicine	-12.5649
Birth	-12.5649
romaji	-12.565
American	-12.565
giants	-12.565
vessel	-12.565
Sydney	-12.5651
processor	-12.5651
blue	-12.5651
seating	-12.5651
Chicago	-12.5651
object	-12.5651
arthur	-12.5651
bodyweight	-12.5651
jia	-12.5652
published	-12.5652
constellation	-12.5652
World	-12.5652
sixth	-12.5653
partial	-12.5654
District	-12.5654
information	-12.5654
Week	-12.5655
opposing	-12.5655
common	-12.5655
School	-12.5656
maximum	-12.5656
memorial	-12.5656
Phil	-12.5657
Billy	-12.5659
residence	-12.5659
Nick	-12.5659
Australian	-12.5659
edward	-12.566
elector	-12.5661
owned	-12.5668
latest	-12.5675
5291	-12.5676
_10015132_1	-12.568
shooter	-12.5683
meet	-12.5688
baron	-12.5688
Visits	-12.5692
dob	-12.5696
▁Hei	-12.5697
bout	-12.5706
institutional	-12.5713
atro	-12.5715
cie	-12.572
rese	-12.5723
_2558	-12.5727
arney	-12.5734
EG	-12.5736
buy	-12.5744
▁Million	-12.5744
_22815568_1	-12.5749
porte	-12.5752
zio	-12.5753
▁8-1	-12.5754
_256286_1	-12.5758
rico	-12.576
circ	-12.5761
602_1	-12.5766
20799	-12.5766
Air	-12.5769
▁Ret	-12.5769
opa	-12.5773
foo	-12.578
_17839	-12.578
1992"	-12.5787
nac	-12.5792
eez	-12.5792
spin	-12.5801
91269	-12.5805
angan	-12.5805
1993"	-12.5806
_1730	-12.5806
lect	-12.5807
fish	-12.5823
joy	-12.586
owan	-12.5865
▁"1.2	-12.5884
4090	-12.5892
605	-12.5899
universi	-12.5903
Leo	-12.5905
▁flat	-12.5912
7-1"	-12.5923
2.12	-12.5935
iki	-12.5946
_114770	-12.5948
▁stay	-12.5951
orre	-12.5951
14460	-12.5953
essons	-12.5955
VI	-12.5957
42_2	-12.5961
▁sol	-12.5962
4,000	-12.5963
4383	-12.5965
plain	-12.5966
mort	-12.598
▁pace	-12.5986
lalom	-12.5989
▁Assist	-12.5989
_26681	-12.5993
▁1200	-12.5993
ccolade	-12.6004
▁Operation	-12.6005
_1411	-12.6009
▁dela	-12.601
georgi	-12.6012
jacob	-12.6017
adeda	-12.6019
▁5.1	-12.6022
94107_1	-12.6026
97759	-12.6028
rystal	-12.6029
▁glob	-12.6036
▁defence	-12.6037
_17632217_	-12.6037
coke	-12.6037
▁Bulgaria	-12.604
rofeo	-12.6045
argentin	-12.6047
meg	-12.605
_266840	-12.605
write	-12.6051
ondition	-12.6051
nhabitants	-12.6053
▁Monte	-12.6054
_27988	-12.6055
arrange	-12.6055
panther	-12.6055
▁7.0	-12.6055
rothrombin	-12.6055
ensus	-12.6056
▁Francis	-12.6056
▁thurs	-12.6057
nrolment	-12.6057
temporary	-12.6057
dioxide	-12.6057
arriving	-12.6057
_11318462_	-12.6057
▁internal	-12.6057
▁nuggets	-12.6057
Barcelona	-12.6057
Communist	-12.6057
Cylinders	-12.6057
Diameter	-12.6057
EVEL	-12.6057
Frankfurt	-12.6057
GRAPE	-12.6057
Macedonia	-12.6057
OVER	-12.6057
Software	-12.6057
Winnipeg	-12.6057
_10577579_	-12.6057
_10705060_1	-12.6057
_11240028_	-12.6057
_11303072_	-12.6057
_1176371_1	-12.6057
_11839306_2	-12.6057
_11869952_	-12.6057
_11960944_	-12.6057
_1231316_	-12.6057
_12547903_	-12.6057
_12807904_	-12.6057
_12886178_	-12.6057
_13026799_	-12.6057
_1341718_	-12.6057
_1342426_	-12.6057
_13464416_	-12.6057
_13564702_	-12.6057
_13759592_	-12.6057
_15026994_	-12.6057
_15405904_1	-12.6057
_15416002_1	-12.6057
_16388439_	-12.6057
_16388478_	-12.6057
_16527640_	-12.6057
_17058116_	-12.6057
_17265535_	-12.6057
_1751142_2	-12.6057
_1858574_	-12.6057
_18602462_2	-12.6057
_18703133_	-12.6057
_18946749_	-12.6057
_1971074_1	-12.6057
_20398823_1	-12.6057
_22839669_1	-12.6057
_23184448_	-12.6057
_23649244_	-12.6057
_24302700_	-12.6057
_24334163_1	-12.6057
_24425976_	-12.6057
_24887326_	-12.6057
_25085059_	-12.6057
_25391981_	-12.6057
_2602958_	-12.6057
_27369069_	-12.6057
_27723526_	-12.6057
_27922491_	-12.6057
_27969432_	-12.6057
_27987623_	-12.6057
_28298589_	-12.6057
_28561455_1	-12.6057
_28884858_	-12.6057
_29747178_	-12.6057
arrnambool	-12.6057
automatic	-12.6057
bangladeshi	-12.6057
basikal	-12.6057
believers	-12.6057
birmingham	-12.6057
clemson	-12.6057
comparison	-12.6057
councillors	-12.6057
deficit	-12.6057
discoverer	-12.6057
employed	-12.6057
expires	-12.6057
gulliksen	-12.6057
hanghai	-12.6057
immunity	-12.6057
kilotonnes	-12.6057
lecturers	-12.6057
mendoza	-12.6057
organized	-12.6057
realisation	-12.6057
scholarship	-12.6057
semitic	-12.6057
terrestrial	-12.6057
turkish	-12.6057
undisclosed	-12.6057
voirdupois	-12.6057
yield	-12.6057
▁0-6-0	-12.6057
▁Conceded	-12.6057
▁Enterprise	-12.6057
▁Example	-12.6057
▁Foundation	-12.6057
▁INVOICE	-12.6057
▁Jockey	-12.6057
▁Lorenzo	-12.6057
▁Organisation	-12.6057
▁Schumacher	-12.6057
▁allergies	-12.6057
▁barrichello	-12.6057
▁bromwich	-12.6057
▁destroyer	-12.6057
▁enterprise	-12.6057
▁glyph	-12.6057
▁naturalisation	-12.6057
▁nordiques	-12.6057
▁penguins	-12.6057
▁turnover	-12.6057
Directed	-12.6057
USISL	-12.6057
_1342270_	-12.6057
_17058226_	-12.6057
_17355628_	-12.6057
_22669044_	-12.6057
_23211041_	-12.6057
absorb	-12.6057
adherents	-12.6057
culture	-12.6057
fowler	-12.6057
ladimir	-12.6057
matthew	-12.6057
pietro	-12.6057
stability	-12.6057
▁Andretti	-12.6057
▁Berlin	-12.6057
▁Council	-12.6057
▁Irish	-12.6057
▁OWNER	-12.6057
▁next	-12.6057
_10812293_	-12.6057
_1333612	-12.6057
_14603212_	-12.6057
_179721	-12.6057
endonym	-12.6057
innacle	-12.6057
karianne	-12.6057
melamine	-12.6057
suffix	-12.6057
▁Floors	-12.6057
▁robinson	-12.6057
Iceland	-12.6057
Mobile	-12.6057
Newcastle	-12.6057
_1358608_	-12.6057
hewitt	-12.6057
ijikata	-12.6057
maidens	-12.6057
modified	-12.6057
▁Irwin	-12.6057
_210588	-12.6057
killeen	-12.6057
kowski	-12.6057
releng	-12.6057
telephone	-12.6057
▁2005-06	-12.6057
▁talent	-12.6057
_2248784_	-12.6057
spartak	-12.6057
▁Choice	-12.6057
▁Stevenson	-12.6057
▁Suzuki	-12.6057
▁breakers	-12.6057
▁genbank	-12.6057
▁hancock	-12.6057
tyrone	-12.6057
▁Bank	-12.6057
▁Portuguese	-12.6057
▁Streak	-12.6057
▁quint	-12.6057
erpics	-12.6057
▁COUNTRY	-12.6057
▁submitted	-12.6057
crescent	-12.6057
durham	-12.6057
nixon	-12.6057
▁shooting	-12.6057
monaco	-12.6057
settled	-12.6057
spoken	-12.6057
temple	-12.6057
ELS	-12.6057
▁Willis	-12.6057
▁gym	-12.6057
275828	-12.6057
Ashley	-12.6057
Chelsea	-12.6057
Geoff	-12.6057
vietnamese	-12.6057
▁Airways	-12.6057
_299971	-12.6057
sussex	-12.6057
▁plur	-12.6057
Adrian	-12.6057
▁matters	-12.6057
Primary	-12.6057
ccupation	-12.6057
kondo	-12.6057
throne	-12.6057
abour	-12.6057
ordini	-12.6058
▁Jonas	-12.6058
_222971	-12.6058
queensland	-12.6058
▁(1-2)	-12.6058
▁2012-13	-12.6058
▁Unser	-12.6058
_1266602_	-12.6058
130829	-12.6058
heaven	-12.6058
▁"4-3"	-12.6058
▁Tampa	-12.6058
▁conventional	-12.6058
Nicola	-12.6058
broadband	-12.6058
liberties	-12.6058
▁realization	-12.6058
permanence	-12.6058
▁villeneuve	-12.6058
_1346118_	-12.6058
_2503102_	-12.6058
▁"3–2"	-12.6058
hectares	-12.6058
uniform	-12.6058
Madrid	-12.6058
▁"2–2"	-12.6058
▁Navy	-12.6058
▁janeiro	-12.6058
▁governorate	-12.6058
precision	-12.6058
▁accept	-12.6058
▁trust	-12.6058
cosponsors	-12.6058
blockfloor	-12.6058
▁intermediate	-12.6058
▁interval	-12.6058
eometry	-12.6058
_120778_	-12.6058
_149841	-12.6058
▁Speedway	-12.6058
_22464	-12.6058
▁Trail	-12.6058
▁Televote	-12.6058
▁Mears	-12.6058
▁Singles	-12.6058
Finland	-12.6058
kurdis	-12.6058
boats	-12.6058
▁earth	-12.6058
_14598_	-12.6058
nichol	-12.6058
_29135051_	-12.6058
▁Barber	-12.6058
▁Manning	-12.6059
▁Head	-12.6059
inverse	-12.6059
▁assistant	-12.6059
▁Luxembourg	-12.6059
_27274	-12.6059
tampeders	-12.6059
▁Northeast	-12.6059
break	-12.6059
▁garner	-12.6059
132_2	-12.6059
macedonian	-12.6059
_1506950_	-12.6059
_11251	-12.6059
▁"1988"	-12.6059
▁"1978"	-12.6059
▁"1989"	-12.6059
▁4–1	-12.6059
BIG	-12.6059
▁2008-09	-12.606
▁"1997"	-12.606
Christophe	-12.606
▁tourney	-12.606
▁yankees	-12.606
▁(19)"	-12.606
rockingham	-12.606
_15905	-12.606
34562	-12.606
gauge	-12.606
3–3"	-12.606
▁Style	-12.606
▁Parish	-12.606
eadowlands	-12.606
avren	-12.606
ürge	-12.606
_15909	-12.606
_149840	-12.606
reaty	-12.606
▁Andrea	-12.606
processing	-12.606
evski	-12.606
auburn	-12.6061
Britta	-12.6061
_25401	-12.6061
tongue	-12.6061
▁norman	-12.6061
payne	-12.6061
_2668374_1	-12.6061
nternet	-12.6061
Hamburg	-12.6061
▁scann	-12.6061
08-09	-12.6061
myspace	-12.6061
_1341577_4	-12.6061
varies	-12.6061
▁Fuel	-12.6062
connor	-12.6062
_28523_	-12.6062
▁102.3	-12.6062
▁7.8	-12.6062
▁Dakota	-12.6062
ULT	-12.6062
_23624	-12.6062
SurfaceArea	-12.6062
▁seville	-12.6063
meara	-12.6063
wij	-12.6063
▁Tower	-12.6063
igation	-12.6063
reduction	-12.6063
▁delta	-12.6063
63779_	-12.6063
elementary	-12.6064
morning	-12.6064
ABC	-12.6064
differential	-12.6064
sexual	-12.6064
▁Cubs	-12.6065
_1980_	-12.6065
15467	-12.6065
hammer	-12.6065
▁cardinals	-12.6065
745820_	-12.6065
_27050	-12.6066
dollar	-12.6066
_27547668_3	-12.6067
60301	-12.6067
database	-12.6067
salmon	-12.6067
▁Opposition	-12.6067
_20236	-12.6068
_27714	-12.6068
▁button	-12.6068
donator	-12.6068
18191	-12.6068
sychological	-12.6068
ousse	-12.6069
62316	-12.6069
_30133_	-12.6069
▁watch	-12.6069
_27539535_4	-12.607
taxes	-12.607
▁Pct	-12.607
▁dative	-12.6071
▁"2-4"	-12.6071
loria	-12.6071
▁Liga	-12.6071
lipsi	-12.6072
▁gam	-12.6072
27332	-12.6072
▁Kong	-12.6073
_29261	-12.6073
urry	-12.6073
barnes	-12.6074
1432	-12.6074
malaysian	-12.6074
etsu	-12.6074
_26682	-12.6075
caul	-12.6075
duty	-12.6075
▁Punt	-12.6076
_21269	-12.6076
_279885	-12.6076
_13018	-12.6076
fylde	-12.6077
▁walk	-12.6078
Louisville	-12.6078
▁wear	-12.6078
Croatian	-12.6079
Mari	-12.6079
▁"1:00	-12.608
UTC	-12.608
▁wheat	-12.608
mouse	-12.608
tember	-12.608
585197	-12.6081
_28178	-12.6081
8530	-12.6081
▁Regional	-12.6082
2423_1	-12.6083
sabin	-12.6083
▁DFL	-12.6083
qld	-12.6083
northwestern	-12.6083
▁Alberta	-12.6084
_262028	-12.6084
...	-12.6084
_12720	-12.6084
_27914	-12.6085
QM	-12.6086
_26769	-12.6086
26495	-12.6086
19001	-12.6087
▁Newman	-12.6087
▁5.4	-12.6087
▁Pts	-12.6088
colbert	-12.6088
▁littler	-12.6088
▁mcke	-12.6089
2399_1	-12.6089
ibbons	-12.6089
491_1	-12.609
0–100	-12.609
quo	-12.609
▁Dale	-12.6092
19266	-12.6092
_27712	-12.6092
▁"1980	-12.6093
55040_	-12.6093
▁Webb	-12.6093
_269920_	-12.6093
14389	-12.6093
Hop	-12.6094
estruction	-12.6094
_26736	-12.6094
britt	-12.6094
56555_	-12.6095
_27003	-12.6095
interchanges	-12.6096
▁Transcripts	-12.6096
mask	-12.6096
▁nucl	-12.6096
▁java	-12.6098
▁qb	-12.6099
648_2	-12.6102
▁5.0	-12.6105
▁1728	-12.6105
_1741	-12.6105
6385	-12.6105
▁"90.	-12.6105
93403	-12.6106
baden	-12.6107
_1968	-12.6108
oulton	-12.611
00346	-12.6111
▁Norther	-12.6111
_2868	-12.6111
_15906	-12.6112
25580	-12.6112
9,000	-12.6113
▁2.3	-12.6115
▁"6–1	-12.6116
▁laptime	-12.6118
dakota	-12.6118
_146559	-12.6121
▁8.3	-12.6122
inoku	-12.6123
guel	-12.6123
▁3:1	-12.6124
99472	-12.6124
anium	-12.6124
▁"1-3	-12.6125
_27833	-12.6126
4438	-12.6127
399_1	-12.6128
resource	-12.6129
cpc	-12.6129
69317	-12.6131
EmployeeID	-12.6132
10814	-12.6132
▁"#2	-12.6133
▁1880	-12.6134
_1341690_2	-12.6134
udience	-12.6135
_14835	-12.6136
hero	-12.6136
PC	-12.6137
586_2	-12.6138
zul	-12.6138
82739	-12.6139
wrap	-12.614
_26998	-12.6141
▁RR	-12.6141
steal	-12.6142
▁"39"	-12.6142
7589	-12.6143
▁engineers	-12.6147
_2745	-12.6147
_1060	-12.6148
kool	-12.6148
▁"1962	-12.6148
shain	-12.6152
▁Semifinalist	-12.6152
71406	-12.6153
kawa	-12.6155
▁55.9	-12.6156
2080	-12.6156
_1913	-12.6156
_19744	-12.6157
8484	-12.6159
QL	-12.616
▁2015	-12.616
▁Gall	-12.616
▁adams	-12.6162
3160	-12.6162
Bernie	-12.6163
▁carol	-12.6163
avian	-12.6164
ncey	-12.6165
89860	-12.6166
5714_	-12.6168
▁1.96	-12.6169
757_1	-12.6169
norton	-12.6174
▁Share	-12.6174
Ph	-12.6177
▁5-2	-12.6177
0192	-12.6178
usmc	-12.6178
goalscorer	-12.6187
▁25–1	-12.6188
what	-12.6192
3701	-12.6194
_10015132_2	-12.6194
▁16.6	-12.6198
_2224	-12.6202
solid	-12.6203
xandra	-12.6207
▁12000	-12.6209
▁560	-12.6213
iccoli	-12.6213
undy	-12.6215
_2428	-12.6216
UR	-12.6218
17_5	-12.6222
▁mot	-12.6227
14562	-12.6232
▁Design	-12.624
▁1909	-12.6244
mover	-12.625
8521_	-12.6258
ieve	-12.6258
75298	-12.6259
haas	-12.626
▁1907	-12.6262
Forum	-12.6262
vitt	-12.6268
elite	-12.6272
▁corn	-12.6272
▁15.7	-12.6273
▁Hear	-12.6274
liger	-12.629
duck	-12.629
3305	-12.6295
_10718	-12.6298
_2175	-12.6299
gard	-12.6299
preseason	-12.6299
▁16.1	-12.6299
0-3"	-12.631
brandon	-12.631
_1562	-12.6312
▁Arm	-12.6314
cabi	-12.633
canal	-12.6335
onic	-12.6342
Close	-12.6343
iment	-12.6347
0:3	-12.6348
1.7%	-12.6348
krag	-12.6351
_26200	-12.6363
_1555	-12.6368
079_1	-12.637
0.6%	-12.637
▁Barba	-12.6372
6116	-12.6373
astest	-12.6373
Hans	-12.6378
louise	-12.6383
increase	-12.6395
811_1	-12.6395
▁"1.5	-12.6404
_2522	-12.6424
_23292220_1	-12.6436
elia	-12.6438
ín	-12.6438
resa	-12.6443
fighter	-12.6449
386_2	-12.6451
áng	-12.6455
ssn	-12.6463
ontrose	-12.6467
bowler	-12.6469
6400	-12.6473
2366	-12.6476
ayton	-12.648
201_1	-12.6482
dication	-12.6486
▁10,000	-12.6487
▁plat	-12.649
7577	-12.6494
screening	-12.6497
▁Shah	-12.6497
abb	-12.651
Parts	-12.6513
_13657	-12.6528
joan	-12.653
.04"	-12.6531
25084	-12.6535
_2784	-12.6538
JC	-12.654
356_3	-12.655
336_1	-12.655
1956"	-12.6553
lavia	-12.6557
▁1-6	-12.656
nake	-12.6567
alachi	-12.6568
5339	-12.6574
abbit	-12.658
ffit	-12.6586
▁4.6	-12.6593
gren	-12.6595
▁Range	-12.6597
rnie	-12.66
8:30	-12.6604
15352	-12.6605
▁este	-12.6606
Kate	-12.661
111_1	-12.6612
160660	-12.6621
Ward	-12.6626
_1342393_	-12.6627
_1341604_2	-12.6631
1024	-12.6632
pld	-12.6635
_1028	-12.6638
_20174050_	-12.6647
▁Gome	-12.6649
amia	-12.6655
2259	-12.6656
byron	-12.6664
–21–	-12.6666
_1341522_3	-12.6666
oise	-12.6668
_21756	-12.6676
140445	-12.6686
wald	-12.6688
bian	-12.6693
▁Mass	-12.6708
▁25-1	-12.671
9502_	-12.6711
027_1	-12.6722
_16751596_1	-12.6726
riest	-12.6732
rospect	-12.6738
▁(7–	-12.6755
▁"1.7	-12.6755
estud	-12.6767
LIS	-12.6768
▁starter	-12.6778
▁PER	-12.678
1843	-12.6782
▁Hot	-12.6791
▁+6	-12.6809
6:3	-12.6814
▁lau	-12.6816
▁12.6	-12.6831
pub	-12.6846
4764_	-12.6852
unny	-12.6862
matched	-12.6867
_1341738_	-12.6868
15_4	-12.6883
_22597626_1	-12.6888
acher	-12.6894
_14342210_	-12.6902
asians	-12.6903
076_1	-12.6911
_2668336_1	-12.6916
▁2010-11	-12.693
▁3.2	-12.6939
50,000	-12.6945
dais	-12.6949
0411	-12.6957
have	-12.6964
lison	-12.6966
_16751596_	-12.6988
▁"5.7	-12.6989
_23284271_1	-12.6989
alian	-12.699
463383_	-12.6999
▁3.8	-12.7013
002_1	-12.7014
sylv	-12.702
Mala	-12.7021
_2668378_1	-12.7028
1528	-12.703
_14044	-12.7035
29063	-12.7042
tym	-12.7056
449	-12.7059
_22410	-12.7059
9485	-12.7067
44156	-12.7069
akim	-12.7069
llie	-12.7071
0623	-12.7082
lome	-12.7084
5000	-12.7086
jung	-12.7089
_1342393_1	-12.709
.76"	-12.7092
2010	-12.7092
9.62	-12.7101
▁0.21	-12.7104
▁Plu	-12.7109
ctivity	-12.7123
▁Lig	-12.7128
Jimm	-12.7135
lini	-12.7149
▁Rod	-12.7151
▁pixel	-12.7152
nthorpe	-12.7183
967_1	-12.7192
▁Wes	-12.7194
▁Econom	-12.72
10-11	-12.72
Pat	-12.7206
198175_	-12.7208
▁100000	-12.7228
itor	-12.7229
4557_	-12.7235
ristian	-12.725
gella	-12.7251
_24565004_	-12.7255
2917	-12.7263
troy	-12.7265
portraye	-12.727
letter	-12.7276
lermo	-12.7278
0.2%	-12.7288
_1341604_	-12.7291
90363_	-12.7293
▁advance	-12.7296
cott	-12.7298
connections	-12.73
resident	-12.73
▁1912	-12.7302
success	-12.7304
unemployment	-12.7305
Alabama	-12.7305
Milwaukee	-12.7305
greece	-12.7305
rookie	-12.7305
application	-12.7305
▁sang	-12.7305
transit	-12.7305
renault	-12.7306
charlotte	-12.7306
Henry	-12.7306
fifth	-12.7308
variant	-12.7308
Joseph	-12.7309
joseph	-12.7309
carrier	-12.7309
return	-12.7309
storage	-12.7309
walker	-12.7309
economy	-12.7311
reserved	-12.7311
cartridge	-12.7311
Brazil	-12.7312
portland	-12.7312
middle	-12.7312
Italian	-12.7312
effic	-12.7313
Cleveland	-12.7313
Russia	-12.7313
replacement	-12.7313
Issue	-12.7314
political	-12.7314
reverse	-12.7314
thursday	-12.7314
virginia	-12.7314
British	-12.7314
davis	-12.7314
Detroit	-12.7315
basketball	-12.7315
exhibition	-12.7315
wednesday	-12.7315
little	-12.7315
drama	-12.7315
indoor	-12.7315
scoring	-12.7315
President	-12.7316
Brown	-12.7316
transmission	-12.7316
became	-12.7317
platelet	-12.7317
wrestler	-12.7319
radio	-12.7319
received	-12.7319
producer	-12.7319
carolina	-12.732
CLASS	-12.732
qualification	-12.732
Port	-12.732
Record	-12.7322
bleeding	-12.7323
asian	-12.7323
Position	-12.7323
Addresses	-12.7323
Laps	-12.7324
netflix	-12.7325
Rep	-12.7325
ective	-12.7325
taken	-12.7334
crease	-12.7339
garden	-12.734
book	-12.7348
innes	-12.7348
came	-12.7355
Lost	-12.7357
partnering	-12.7362
_1341423_4	-12.7365
former	-12.7374
vii	-12.7377
eading	-12.7387
nato	-12.7389
lowest	-12.7397
▁roo	-12.7401
rita	-12.7415
24415	-12.7416
enard	-12.7423
▁1.08	-12.7424
kata	-12.7425
▁lom	-12.7428
6261	-12.7433
conn	-12.7439
0-13	-12.7447
Belgi	-12.7452
UM	-12.7454
Manu	-12.7478
jou	-12.7482
vla	-12.7495
1812	-12.7498
grove	-12.7504
eik	-12.7511
4.7%	-12.7512
_1342359_1	-12.7516
nathan	-12.7518
0118	-12.7519
mour	-12.7522
mantha	-12.7526
sesam	-12.7537
bron	-12.7547
_1341472_1	-12.7551
enhause	-12.7552
_1341843_1	-12.7568
▁Bern	-12.7568
_17085	-12.757
_1342370_	-12.7571
18850_	-12.7572
2228	-12.7584
:21	-12.7586
rryd	-12.7588
nant	-12.7589
ravens	-12.7603
_30120	-12.7603
▁"2011	-12.7609
agua	-12.7612
hrows	-12.7614
dential	-12.7624
_16010	-12.763
_1145	-12.7638
due	-12.7639
3837	-12.7641
airline	-12.7644
▁sud	-12.7644
_1342149_1	-12.7646
Doug	-12.7649
56.5	-12.7652
▁Eagle	-12.7654
▁Motorsport	-12.7655
▁saving	-12.7659
Pun	-12.7663
▁contest	-12.7671
vara	-12.7673
MF	-12.7675
_180182	-12.7676
_15078	-12.7691
▁3:0	-12.7692
▁lib	-12.7698
emington	-12.7703
8077_2	-12.7709
▁laker	-12.7709
4647	-12.7711
71552	-12.7711
velopment	-12.7713
82699_	-12.7714
▁close	-12.7715
stablished	-12.7717
process	-12.7718
▁opponen	-12.7718
croatia	-12.7719
rominence	-12.7719
tube	-12.772
education	-12.7721
yankee	-12.7721
▁quart	-12.7721
illiseconds	-12.7721
pakistan	-12.7722
Dami	-12.7722
ittipaldi	-12.7722
urniture	-12.7722
punch	-12.7722
rolonged	-12.7723
omponent	-12.7723
ndustrial	-12.7723
pirit	-12.7723
belarus	-12.7723
Argentin	-12.7724
yllable	-12.7724
yghur	-12.7724
neutral	-12.7724
ACTIONS	-12.7724
_294744	-12.7724
effect	-12.7724
▁clinical	-12.7724
_2150156	-12.7724
coalition	-12.7724
induced	-12.7724
masculine	-12.7724
Armstrong	-12.7724
Callanetics	-12.7724
Cancelled	-12.7724
Canterbury	-12.7724
Catholic	-12.7724
ContId	-12.7724
ESPN	-12.7724
Graphics	-12.7724
Kitchen	-12.7724
Kyrkje	-12.7724
Leicester	-12.7724
Lindsay	-12.7724
Manitoba	-12.7724
Polynesia	-12.7724
Presentation	-12.7724
Professor	-12.7724
Settled	-12.7724
Transliteration	-12.7724
_11111116_	-12.7724
_11585313_	-12.7724
_11950720_	-12.7724
_11951237_	-12.7724
_13557843_	-12.7724
_13619027_	-12.7724
_14882588_	-12.7724
_15740666_	-12.7724
_15872814_	-12.7724
_1620397_	-12.7724
_16295365_	-12.7724
_16741821_	-12.7724
_16864968_	-12.7724
_17058151_	-12.7724
_17103729_	-12.7724
_18047346_	-12.7724
_18173916_	-12.7724
_18335117_	-12.7724
_18662026_1	-12.7724
_19229713_	-12.7724
_19418696_3	-12.7724
_1949994_	-12.7724
_1969577_	-12.7724
_19753079_1	-12.7724
_20360535_	-12.7724
_20872722_1	-12.7724
_2190919_	-12.7724
_21995420_	-12.7724
_22319599_1	-12.7724
_22583466_	-12.7724
_22871316_	-12.7724
_22916979_	-12.7724
_23117208_	-12.7724
_23286112_	-12.7724
_23793770_	-12.7724
_24466191_1	-12.7724
_24638867_	-12.7724
_24901152_	-12.7724
_25818630_	-12.7724
_26041144_1	-12.7724
_26168687_	-12.7724
_26360571_2	-12.7724
_26428602_1	-12.7724
_26448179_	-12.7724
_26466528_1	-12.7724
_26808178_	-12.7724
_26961951_	-12.7724
_27501030_	-12.7724
_27704187_	-12.7724
_27734769_	-12.7724
_30008638_1	-12.7724
adventure	-12.7724
anathinaikos	-12.7724
anderbilt	-12.7724
chaefer	-12.7724
chambering	-12.7724
chevrolet	-12.7724
compétition	-12.7724
connecticut	-12.7724
emeteries	-12.7724
fløysvik	-12.7724
frankfurt	-12.7724
huntington	-12.7724
hybrid	-12.7724
linux	-12.7724
lloyd	-12.7724
marquee	-12.7724
mavericks	-12.7724
mechanical	-12.7724
morocco	-12.7724
nashville	-12.7724
postponed	-12.7724
pyramids	-12.7724
quatorial	-12.7724
ramnik	-12.7724
territories	-12.7724
uzzy	-12.7724
wabash	-12.7724
wireless	-12.7724
wyoming	-12.7724
yvonne	-12.7724
zagreb	-12.7724
íguez	-12.7724
▁"2005-06"	-12.7724
▁"2007-08"	-12.7724
▁4-6-0	-12.7724
▁Adventure	-12.7724
▁Amendment	-12.7724
▁Appearance	-12.7724
▁Arsenal	-12.7724
▁Bailey	-12.7724
▁Beatles	-12.7724
▁Broadway	-12.7724
▁Brooks	-12.7724
▁Canadiens	-12.7724
▁Dolphins	-12.7724
▁Duncan	-12.7724
▁EMPLOYEE	-12.7724
▁Elimination	-12.7724
▁Explorer	-12.7724
▁Galaxy	-12.7724
▁Hampshire	-12.7724
▁INVESTORS	-12.7724
▁Injured	-12.7724
▁Institution	-12.7724
▁Limit	-12.7724
▁Miranda	-12.7724
▁PERFORM	-12.7724
▁PRODUCTS	-12.7724
▁Pacific	-12.7724
▁Pakistan	-12.7724
▁Philippines	-12.7724
▁RANK	-12.7724
▁Robbins	-12.7724
▁Stricker	-12.7724
▁Tornadoes	-12.7724
▁Trevino	-12.7724
▁VISITOR	-12.7724
▁Vehicle	-12.7724
▁Warriors	-12.7724
▁academic	-12.7724
▁agusta	-12.7724
▁alonso	-12.7724
▁bernard	-12.7724
▁caretaker	-12.7724
▁dudley	-12.7724
▁frentzen	-12.7724
▁frequencies	-12.7724
▁gibson	-12.7724
▁gonzalez	-12.7724
▁interior	-12.7724
▁mittelfranken	-12.7724
▁nicklaus	-12.7724
▁olympique	-12.7724
▁pérez	-12.7724
▁quiabaya	-12.7724
▁shuster	-12.7724
▁tagliani	-12.7724
/02/19	-12.7724
Nominee	-12.7724
Ralph	-12.7724
_11960610_	-12.7724
_17102076_	-12.7724
_17340355_	-12.7724
_2534387_1	-12.7724
_2656150	-12.7724
bathroom	-12.7724
czech	-12.7724
disposal	-12.7724
moldova	-12.7724
orphans	-12.7724
pumpers	-12.7724
recognised	-12.7724
submarines	-12.7724
▁Auburn	-12.7724
▁Broadcast	-12.7724
▁Hangul	-12.7724
▁Hanja	-12.7724
▁coppa	-12.7724
▁dodgers	-12.7724
▁geust	-12.7724
-71=27	-12.7724
_1057262_	-12.7724
_121138	-12.7724
_2374338_2	-12.7724
ampeonato	-12.7724
crapped	-12.7724
mandatory	-12.7724
rilliance	-12.7724
science	-12.7724
vinyl	-12.7724
ylesbury	-12.7724
▁DNF	-12.7724
▁DOB	-12.7724
▁Pride	-12.7724
▁Turner	-12.7724
▁amateur	-12.7724
▁dixon	-12.7724
▁unsure	-12.7724
_25595107_	-12.7724
exhaust	-12.7724
predecessor	-12.7724
rawford	-12.7724
▁(5–7)	-12.7724
▁Canucks	-12.7724
▁Pedro	-12.7724
▁weightlifter	-12.7724
Monaco	-12.7724
_12226390_	-12.7724
aipei	-12.7724
barbara	-12.7724
▁(5-6)	-12.7724
▁bandini	-12.7724
▁tosses	-12.7724
OHA	-12.7724
bangla	-12.7724
▁Couple	-12.7724
Dublin	-12.7724
_163885	-12.7724
_16729063_	-12.7724
_210924	-12.7724
▁"4-4-0	-12.7724
▁2006-07	-12.7724
▁Cosworth	-12.7724
▁Girl	-12.7724
▁shipped	-12.7724
epoch	-12.7724
practic	-12.7724
_25740548_	-12.7724
clinton	-12.7724
copyright	-12.7724
duffy	-12.7724
▁TOUR	-12.7724
▁khmer	-12.7724
-71-73=2	-12.7724
Working	-12.7724
_1341884_	-12.7724
cubic	-12.7724
jør	-12.7724
ldershot	-12.7724
▁AAAAA	-12.7724
▁Raptors	-12.7724
▁Venus	-12.7724
▁walsh	-12.7724
_2571639	-12.7724
▁Bullet	-12.7724
_179682	-12.7724
jorge	-12.7724
purdue	-12.7724
raised	-12.7724
▁(1-4)	-12.7724
Queensland	-12.7724
Travis	-12.7724
▁nominating	-12.7724
▁storeys	-12.7724
colombia	-12.7724
forsythe	-12.7724
▁Stockings	-12.7724
▁defeated	-12.7724
/08/	-12.7724
▁Colts	-12.7724
▁Russel	-12.7724
▁mcneil	-12.7724
blood	-12.7724
martyred	-12.7724
nanquan	-12.7724
surplus	-12.7724
▁"2–4"	-12.7724
▁contemporary	-12.7724
▁hardware	-12.7724
▁mvp	-12.7724
gillingham	-12.7724
▁Kennedy	-12.7724
▁orthodox	-12.7724
Michel	-12.7724
▁religious	-12.7724
▁rōmaji	-12.7724
dodge	-12.7724
▁illustrat	-12.7724
iffert	-12.7724
_18404	-12.7724
▁bryant	-12.7724
▁costume	-12.7724
▁lites	-12.7724
▁lynn	-12.7724
▁terminated	-12.7724
▁Derby	-12.7724
ullivan	-12.7724
ttingham	-12.7724
michele	-12.7724
navig	-12.7724
skaya	-12.7724
▁focal	-12.7724
▁Zabel	-12.7724
wooster	-12.7724
WEST	-12.7724
defective	-12.7724
toledo	-12.7724
▁Village	-12.7724
▁petersburg	-12.7724
(2001	-12.7724
limpia	-12.7725
Serbia	-12.7725
▁exports	-12.7725
rebels	-12.7725
analogue	-12.7725
spartan	-12.7725
phillip	-12.7725
Science	-12.7725
▁"21–25"	-12.7725
-74=14	-12.7725
woman	-12.7725
6-0"	-12.7725
▁become	-12.7725
▁translate	-12.7725
▁92.7	-12.7725
khuzestan	-12.7725
▁Barnes	-12.7725
▁Premiership	-12.7725
_2668329_1	-12.7725
97144	-12.7725
1181	-12.7725
Worth	-12.7725
_12121	-12.7725
alician	-12.7725
▁volts	-12.7725
Cats	-12.7725
console	-12.7725
▁heavyweight	-12.7725
_13758	-12.7725
Hindi	-12.7725
enchov	-12.7725
morgan	-12.7725
belgrade	-12.7725
ossendale	-12.7725
_28665	-12.7725
ktm	-12.7725
elugu	-12.7726
▁ubaid	-12.7726
epalis	-12.7726
bradley	-12.7726
▁chipset	-12.7726
odore	-12.7726
losure	-12.7726
critic	-12.7726
bronx	-12.7726
▁passing	-12.7726
Slovak	-12.7726
▁Stock	-12.7726
holland	-12.7726
▁Cache	-12.7726
▁Marino	-12.7726
ibrary	-12.7726
▁Butler	-12.7726
▁bodybuilder	-12.7726
palmer	-12.7726
alcio	-12.7726
hofen	-12.7726
▁(17)"	-12.7726
millwall	-12.7726
▁Villa	-12.7726
▁relay	-12.7726
thailand	-12.7726
lunar	-12.7726
▁"1982"	-12.7726
_1341865_2	-12.7726
▁"1991"	-12.7726
brazilian	-12.7726
_30059	-12.7726
▁(32)"	-12.7727
▁"1963"	-12.7727
▁Battle	-12.7727
▁Lotus	-12.7727
_250911	-12.7727
defeat	-12.7727
bedroom	-12.7727
▁"0-2"	-12.7727
calculated	-12.7727
▁exist	-12.7727
▁Marque	-12.7727
_24192	-12.7727
▁Southeast	-12.7727
▁willis	-12.7727
methyl	-12.7727
vayu	-12.7727
spoon	-12.7728
spurs	-12.7728
▁Porsche	-12.7728
onrad	-12.7728
▁successes	-12.7728
147470	-12.7728
▁martial	-12.7728
1738_1	-12.7728
▁felton	-12.7728
lejandr	-12.7728
▁rabat	-12.7728
constant	-12.7728
▁catch	-12.7728
▁lyon	-12.7728
_10610	-12.7728
arrell	-12.7729
_197638_6	-12.7729
Option	-12.7729
961421	-12.7729
_27614	-12.7729
kazu	-12.7729
▁civilians	-12.7729
▁Yama	-12.7729
▁loco	-12.7729
▁stoner	-12.7729
14477	-12.773
▁angels	-12.773
▁workshop	-12.773
sodium	-12.773
tahir	-12.773
▁"5-1"	-12.773
devil	-12.773
80537	-12.773
Energ	-12.773
_25721_	-12.7731
arnett	-12.7731
▁"2011-12	-12.7731
Support	-12.7731
▁brooks	-12.7731
fiscal	-12.7731
▁Poland	-12.7731
▁Kenne	-12.7731
robate	-12.7731
▁songwriter	-12.7731
▁"6–7	-12.7731
▁medalist	-12.7731
▁help	-12.7732
▁21-22	-12.7732
85609	-12.7732
▁0:1	-12.7732
3532_2	-12.7732
mercury	-12.7732
mideast	-12.7732
until	-12.7732
▁Fury	-12.7732
billboard	-12.7732
▁sox	-12.7732
ballot	-12.7732
glendale	-12.7732
_2668401_1	-12.7732
▁Driv	-12.7732
_18424435_4	-12.7733
_27268238_4	-12.7733
Lieutenant	-12.7733
barrier	-12.7733
naugurat	-12.7733
angry	-12.7733
_24039	-12.7733
tribu	-12.7733
ospin	-12.7733
▁offered	-12.7733
▁POS	-12.7733
6232_	-12.7733
▁preschool	-12.7733
_21378	-12.7734
feld	-12.7734
▁moran	-12.7734
piston	-12.7734
▁accessed	-12.7734
▁willing	-12.7734
▁McCo	-12.7735
ebbe	-12.7735
▁rush	-12.7735
northeastern	-12.7735
▁Bach	-12.7735
_21313	-12.7735
▁Mack	-12.7736
▁Way	-12.7736
161859	-12.7736
▁97–	-12.7736
Spice	-12.7736
Cycl	-12.7736
planetary	-12.7736
tsop	-12.7736
printing	-12.7737
ainty	-12.7737
▁"2-2"	-12.7737
35132	-12.7737
ijst	-12.7738
▁gray	-12.7738
_13857	-12.7738
73089	-12.7738
▁castle	-12.7739
▁competed	-12.7739
onaut	-12.7739
_15327	-12.7739
_2062148_	-12.7739
▁subj	-12.774
youtube	-12.774
flint	-12.774
Tax	-12.774
burger	-12.774
▁Orange	-12.774
_10321	-12.774
▁"105.	-12.774
_28059992_5	-12.774
ariners	-12.774
61625	-12.774
34219	-12.774
xxx	-12.774
ixie	-12.7741
▁"1–1"	-12.7741
▁promo	-12.7741
folk	-12.7741
▁zx	-12.7741
▁Beck	-12.7741
linna	-12.7741
soph	-12.7741
_287159	-12.7741
DZ	-12.7742
ushin	-12.7742
65809	-12.7743
83850	-12.7743
_13050	-12.7743
▁gcm	-12.7743
▁0-0	-12.7744
95061	-12.7745
_14259	-12.7746
aving	-12.7746
▁Bolt	-12.7746
_22875	-12.7746
_12186	-12.7747
campusfee	-12.7747
▁pele	-12.7747
_17632217_1	-12.7748
nead	-12.7748
chroma	-12.7748
holmen	-12.7748
▁Mix	-12.7749
▁Forest	-12.775
Sept	-12.775
▁Perry	-12.775
30121	-12.7751
Hugh	-12.7751
_262502	-12.7751
081_1	-12.7751
2438	-12.7751
44188	-12.7752
_20630	-12.7753
2680	-12.7753
restri	-12.7753
habit	-12.7753
628_1	-12.7754
▁2337	-12.7754
▁7.6	-12.7754
starring	-12.7754
▁overweight	-12.7754
▁pic	-12.7755
9942_1	-12.7756
lakh	-12.7756
bolt	-12.7757
_25740	-12.7758
consu	-12.7758
Route	-12.776
▁chair	-12.776
usable	-12.776
12025_	-12.7761
▁2004-05	-12.7761
79931_	-12.7763
lbf	-12.7764
Fleming	-12.7765
transition	-12.7765
bask	-12.7767
▁coaches	-12.7767
tyrrell	-12.7767
gius	-12.7769
▁UE	-12.7769
▁PSI	-12.7769
_22483	-12.7772
_10798	-12.7772
▁competitor	-12.7772
task	-12.7774
▁newman	-12.7774
▁1868	-12.7774
984_2	-12.7775
429629_	-12.7775
_1507852_	-12.7777
srp	-12.7778
▁1918	-12.7779
▁chand	-12.778
84817	-12.7781
_17327	-12.7782
▁KK	-12.7783
▁sever	-12.7784
▁epa	-12.7785
peciality	-12.7786
OHL	-12.7786
▁Guy	-12.7786
bik	-12.7789
pocon	-12.7789
stler	-12.7791
▁Displa	-12.7791
Pont	-12.7793
▁14.1	-12.7793
28622	-12.7793
▁–10	-12.7793
▁intelli	-12.7794
moment	-12.7794
butter	-12.7794
4885	-12.7796
gatta	-12.7796
itchell	-12.7797
▁1922	-12.7799
_17798	-12.7799
agra	-12.7801
agst	-12.7803
▁breme	-12.7803
0275_	-12.7803
▁Shaw	-12.7804
▁"5.4	-12.7805
earning	-12.7805
moul	-12.7805
_20745	-12.7805
_245801_	-12.7808
▁12/1	-12.7812
_23214	-12.7813
_2449	-12.7813
▁Exp	-12.7814
6755	-12.7815
reau	-12.7817
_266817	-12.7819
-08-2	-12.782
7.62	-12.7822
▁7.5	-12.7822
Carole	-12.7823
81939	-12.7824
0532	-12.7833
6668	-12.7833
▁drums	-12.7836
44931	-12.7838
notation	-12.784
root	-12.7841
3785	-12.7843
▁1923	-12.7843
▁1919	-12.7844
atory	-12.7844
▁pate	-12.7844
IAA	-12.7847
doha	-12.7847
▁4.1	-12.7848
▁ATM	-12.7848
7185	-12.7854
dsl	-12.7857
cred	-12.7857
attle	-12.7857
▁"4.2	-12.7858
_14889	-12.7859
belgi	-12.786
9788_	-12.786
usted	-12.7861
suwon	-12.7865
3015	-12.7867
topping	-12.7872
▁10.8	-12.7874
573_1	-12.7875
29942	-12.7875
ICE	-12.7875
57799	-12.7877
12061	-12.7878
10464	-12.788
ware	-12.7886
▁Marie	-12.7886
▁bop	-12.7886
-11-2	-12.7887
33869	-12.789
igel	-12.7893
▁pig	-12.7893
▁Natur	-12.7893
_1452	-12.7899
▁1858	-12.7899
hausen	-12.79
52.0	-12.7901
nati	-12.7906
bga	-12.7908
33.3	-12.791
_1046	-12.7915
86136	-12.7926
ebate	-12.7934
:39.	-12.7935
▁ellis	-12.7937
1260	-12.7938
▁urs	-12.7939
stadio	-12.7943
_1958	-12.7945
5594	-12.7947
292_1	-12.7954
desk	-12.7955
_16387	-12.7957
kaj	-12.7957
Uni	-12.7958
0–6"	-12.796
▁yoon	-12.7962
oval	-12.7964
kut	-12.7966
Alice	-12.7974
Grad	-12.7976
kali	-12.7976
eris	-12.7984
6228_	-12.7988
atlas	-12.799
▁archer	-12.799
lona	-12.7991
5085	-12.7993
3349	-12.7994
foreigner	-12.7999
16903	-12.8004
2379_4	-12.8006
hakh	-12.8009
hdr	-12.8012
erner	-12.8013
_2655	-12.8021
▁like	-12.8024
▁Fran	-12.8028
Steven	-12.803
▁0–0	-12.804
▁stud	-12.8041
TON	-12.8044
23548	-12.8049
licia	-12.8052
olog	-12.8054
anier	-12.8073
chau	-12.808
HOT	-12.8083
wimmer	-12.8089
bold	-12.8095
:29	-12.8109
clare	-12.8133
7.78	-12.8149
otton	-12.8151
_24565004_2	-12.8159
ticker	-12.8163
▁"2-5	-12.8166
_1341453_2	-12.8171
▁comme	-12.8176
96057	-12.8186
06950	-12.8189
7137	-12.8201
24620	-12.8206
663_3	-12.8212
▁"3.3	-12.8218
▁1913	-12.8221
▁ACC	-12.8238
▁Got	-12.8243
DX	-12.8253
▁12.1	-12.8274
98175_2	-12.828
itan	-12.8285
dayton	-12.8298
Bron	-12.8303
852_1	-12.8305
▁4–0	-12.8306
7.52	-12.8308
445_	-12.8313
▁Neu	-12.8315
cliff	-12.8337
wang	-12.8338
▁11.8	-12.8364
4983_	-12.8392
BU	-12.8396
Kent	-12.8396
_1341423_	-12.84
tiya	-12.84
26467_	-12.8408
▁Lot	-12.8416
booked	-12.8423
arget	-12.8429
9.3%	-12.8447
3237	-12.8449
lva	-12.8455
2301	-12.8471
_2668378_	-12.8482
chem	-12.8487
61788	-12.8488
_26250	-12.8491
▁troop	-12.8495
regime	-12.8495
ylvia	-12.8503
▁adria	-12.8514
gallo	-12.8535
04621	-12.8535
2944	-12.8537
Visit	-12.8551
_16976	-12.8554
1828	-12.8558
__1931_	-12.8579
casa	-12.8579
9231	-12.8595
matchups	-12.8596
tsch	-12.8597
_27733909_1	-12.8608
0431	-12.8609
088_2	-12.8616
1080	-12.8629
_14633	-12.8634
Kai	-12.8646
_1341738_3	-12.866
04682	-12.8664
▁"3.5	-12.8676
statu	-12.8679
inald	-12.8687
_1341395_3	-12.869
_14977	-12.8691
▁kitt	-12.8703
isiting	-12.8726
hira	-12.8731
.141	-12.8736
4855	-12.8743
devit	-12.8748
TU	-12.8751
▁gul	-12.8767
eslie	-12.8767
5.74	-12.8767
4156	-12.8784
38.4	-12.8786
9-0	-12.8789
▁charl	-12.8812
2543	-12.8814
▁rapid	-12.8836
_1108394_4	-12.884
▁grave	-12.8841
▁Mead	-12.8849
ikha	-12.8857
5442	-12.887
ourtney	-12.8884
_1341586_4	-12.8887
Julie	-12.8897
Mak	-12.89
0803_	-12.8919
agay	-12.8927
_19897294_	-12.8928
0.9%	-12.8931
sporting	-12.8933
▁Barre	-12.8964
0519	-12.8965
▁7.7	-12.8991
▁Rap	-12.8999
1987"	-12.9001
ague	-12.9018
8.1%	-12.9029
▁programm	-12.9031
▁serv	-12.905
00525	-12.9051
36178	-12.9057
18312	-12.9058
tues	-12.9059
1931_	-12.9072
alford	-12.9072
55.6	-12.9081
Att	-12.9082
ttoman	-12.9103
1768_	-12.9104
vince	-12.9121
-73=1	-12.9129
▁stark	-12.9144
▁progress	-12.9146
24.6	-12.9157
▁Terre	-12.9166
anuel	-12.9192
Rafa	-12.9196
▁50000	-12.9204
headquarter	-12.9235
63.5	-12.9246
oventry	-12.9252
▁"4:0	-12.9302
Simon	-12.9304
included	-12.9305
graham	-12.9305
monarch	-12.9306
greek	-12.9306
prereq	-12.9307
pennsylvania	-12.9307
bulls	-12.9307
spike	-12.9307
promoted	-12.9308
agency	-12.9308
maryland	-12.9308
safari	-12.9309
dutch	-12.9309
drop	-12.931
pronunciation	-12.931
Denver	-12.931
Mexico	-12.9311
Montreal	-12.9311
Orlando	-12.9311
cospar	-12.9311
Central	-12.9313
undecided	-12.9313
Teacher	-12.9313
measure	-12.9313
Centre	-12.9313
Ohio	-12.9313
fatalities	-12.9314
created	-12.9314
alternate	-12.9314
utah	-12.9314
worst	-12.9314
facility	-12.9314
Maryland	-12.9314
Method	-12.9314
Studio	-12.9315
vocal	-12.9315
Eric	-12.9315
oberliga	-12.9315
Second	-12.9316
scientist	-12.9316
incoming	-12.9316
worldwide	-12.9317
square	-12.9317
oilers	-12.9317
launches	-12.9317
Toronto	-12.9318
device	-12.9318
Black	-12.9318
Clay	-12.9319
agricultural	-12.9319
Europe	-12.932
trofeo	-12.932
Center	-12.932
Runner	-12.9321
playlist	-12.9321
jackson	-12.9321
tdp	-12.9322
Season	-12.9322
Home	-12.9322
given	-12.9323
frame	-12.9324
Adam	-12.9325
counties	-12.9326
arranger	-12.9326
abbr	-12.9329
Germany	-12.933
some	-12.9332
Last	-12.9332
where	-12.9332
plant	-12.9337
Franc	-12.9363
vida	-12.9372
▁medica	-12.9383
NENT	-12.9387
brice	-12.939
ndrej	-12.9414
▁expense	-12.943
jews	-12.9449
obyl	-12.9458
▁miner	-12.9461
06693	-12.9476
Percent	-12.9481
esignation	-12.9481
14.5	-12.9482
▁Pav	-12.9519
7.1%	-12.9533
▁"3.6	-12.9537
9.25	-12.9539
equip	-12.9542
masah	-12.9547
_1738	-12.9569
▁Reserve	-12.9569
slavic	-12.9574
ightning	-12.9578
vá	-12.9578
424_8	-12.9583
–109	-12.9585
18268	-12.9585
_1442	-12.9588
clear	-12.959
.76%	-12.9592
elford	-12.9599
0.4%	-12.9606
14857	-12.9618
4362	-12.9619
0.7%	-12.9627
mitch	-12.964
14655	-12.9642
▁pictur	-12.9647
genera	-12.965
atche	-12.965
Content	-12.9654
wedish	-12.9654
lovenes	-12.9654
thousand	-12.9656
touchdown	-12.9657
48792	-12.966
96122	-12.966
rrival	-12.9661
40132	-12.9661
dministrative	-12.9661
ffiliation	-12.9662
jection	-12.9662
cquisition	-12.967
_269920_1	-12.9673
▁propert	-12.9674
onstruction	-12.9676
:20.	-12.9677
mattia	-12.9677
▁Gibb	-12.9678
ignal	-12.9681
Mate	-12.9685
owitz	-12.9686
eapon	-12.9689
01211	-12.9692
604_1	-12.9693
▁PLAY	-12.9695
PPO	-12.9695
redentials	-12.9701
raeme	-12.9703
uchess	-12.9704
▁regulat	-12.9705
▁Audi	-12.9707
filip	-12.9708
ological	-12.9708
▁7.4	-12.971
_27547668_	-12.9711
956_1	-12.9711
▁specif	-12.9712
_18424435_	-12.9713
_27268238_	-12.9713
ommander	-12.9718
ommercial	-12.9718
fernand	-12.9719
leeding	-12.9719
syria	-12.9719
rogramming	-12.9719
tradition	-12.9721
▁Origin	-12.9721
▁digit	-12.9721
antiago	-12.9721
ultiplier	-12.9721
otorcycle	-12.9721
photo	-12.9722
uxembourg	-12.9722
nacional	-12.9723
Wilfr	-12.9723
enitive	-12.9723
jamaica	-12.9723
▁"2002-03	-12.9723
_239589	-12.9724
▁constitu	-12.9724
-69-73=21	-12.9724
tertiary	-12.9724
▁Participat	-12.9724
combaya	-12.9724
incarceration	-12.9724
▁Package	-12.9724
▁Stewart	-12.9724
▁dbeingtri	-12.9724
Accelerate	-12.9724
Available	-12.9724
Baldwin	-12.9724
Catalunya	-12.9724
Dynamo	-12.9724
Facilities	-12.9724
Gabriel	-12.9724
GovernmentForm	-12.9724
Hungarian	-12.9724
Lincoln	-12.9724
Morocco	-12.9724
Spencer	-12.9724
_10021158_3	-12.9724
_10647639_1	-12.9724
_10710364_	-12.9724
_10953197_	-12.9724
_11793221_	-12.9724
_11827596_	-12.9724
_11960407_	-12.9724
_12584173_1	-12.9724
_12592074_1	-12.9724
_12791809_1	-12.9724
_1301373_	-12.9724
_1307842_	-12.9724
_1342315_1	-12.9724
_1354805_	-12.9724
_13619053_	-12.9724
_14330096_	-12.9724
_1456056_1	-12.9724
_1539201_1	-12.9724
_15824796_	-12.9724
_15829930_5	-12.9724
_16581695_	-12.9724
_16729457_1	-12.9724
_16770037_3	-12.9724
_169693_1	-12.9724
_17060277_	-12.9724
_17104539_1	-12.9724
_17121262_	-12.9724
_17282875_	-12.9724
_17322817_	-12.9724
_17382360_	-12.9724
_17505751_5	-12.9724
_17901155_	-12.9724
_1802522_	-12.9724
_18064020_21	-12.9724
_1847180_	-12.9724
_1852650_1	-12.9724
_1875157_	-12.9724
_1952057_5	-12.9724
_19753079_3	-12.9724
_19789597_	-12.9724
_20505342_1	-12.9724
_21234111_	-12.9724
_22170495_	-12.9724
_22580855_1	-12.9724
_22962745_	-12.9724
_23235767_	-12.9724
_23248967_	-12.9724
_23293785_	-12.9724
_23385853_1	-12.9724
_23501776_1	-12.9724
_23963781_	-12.9724
_24115349_	-12.9724
_24431348_	-12.9724
_24784769_1	-12.9724
_24938621_	-12.9724
_25548630_1	-12.9724
_25647137_2	-12.9724
_25737761_	-12.9724
_26108103_2	-12.9724
_2655016_	-12.9724
_26826304_	-12.9724
_27094070_4	-12.9724
_27279050_	-12.9724
_27722734_1	-12.9724
_27723228_	-12.9724
_27756014_	-12.9724
_28137918_5	-12.9724
_2820584_	-12.9724
_28348757_	-12.9724
_28859177_	-12.9724
_28967275_	-12.9724
_29087004_	-12.9724
_29302711_1	-12.9724
acharya	-12.9724
altrincham	-12.9724
anionios	-12.9724
antwerp	-12.9724
bangkok	-12.9724
bluetooth	-12.9724
bundesliga	-12.9724
bydgoszcz	-12.9724
catholic	-12.9724
clarification	-12.9724
clippers	-12.9724
cmdlet	-12.9724
collected	-12.9724
difficulty	-12.9724
edinburgh	-12.9724
efficiency	-12.9724
estrella	-12.9724
explosion	-12.9724
fastestlapspeed	-12.9724
feminine	-12.9724
further	-12.9724
gonzález	-12.9724
guernsey	-12.9724
halifax	-12.9724
hambliss	-12.9724
hampshire	-12.9724
hockenheimring	-12.9724
iangshu	-12.9724
ibernian	-12.9724
ilkenny	-12.9724
illoresi	-12.9724
imberwolves	-12.9724
impact	-12.9724
inductee	-12.9724
integration	-12.9724
itória	-12.9724
kilmarnock	-12.9724
kyalami	-12.9724
leicester	-12.9724
leningrad	-12.9724
loemfontein	-12.9724
loomington	-12.9724
lymouth	-12.9724
manufacte	-12.9724
minneapolis	-12.9724
msterdam	-12.9724
obverse	-12.9724
ollectible	-12.9724
olympiacos	-12.9724
ominguez	-12.9724
ontenegro	-12.9724
portsmouth	-12.9724
powiats	-12.9724
ractievoorzitter	-12.9724
rageous	-12.9724
rancorchamps	-12.9724
residency	-12.9724
rticulatory	-12.9724
shmolean	-12.9724
sinhalese	-12.9724
sitalsasthi	-12.9724
takaiwa	-12.9724
tatsuhito	-12.9724
violent	-12.9724
wickenham	-12.9724
xdrive	-12.9724
▁"16:9"	-12.9724
▁(0–1)	-12.9724
▁2000-2001	-12.9724
▁Actress	-12.9724
▁Bennett	-12.9724
▁Colombia	-12.9724
▁Darling	-12.9724
▁Dependen	-12.9724
▁Dragons	-12.9724
▁Elliot	-12.9724
▁Gibson	-12.9724
▁Graham	-12.9724
▁Instruments	-12.9724
▁Jennings	-12.9724
▁Mavericks	-12.9724
▁Mclaren	-12.9724
▁Munster	-12.9724
▁Nashville	-12.9724
▁Nicklaus	-12.9724
▁Nixon	-12.9724
▁Penguins	-12.9724
▁RACE	-12.9724
▁Reeves	-12.9724
▁Roughriders	-12.9724
▁Sheridan	-12.9724
▁TOURNAMENT	-12.9724
▁Thrashers	-12.9724
▁Toshiba	-12.9724
▁Wanderers	-12.9724
▁Wildcats	-12.9724
▁Wilkinson	-12.9724
▁alouettes	-12.9724
▁buccaneers	-12.9724
▁cassette	-12.9724
▁conferred	-12.9724
▁crenshaw	-12.9724
▁famiglia	-12.9724
▁furyk	-12.9724
▁geiberger	-12.9724
▁kilograms	-12.9724
▁mcenroe	-12.9724
▁oooo	-12.9724
▁revival	-12.9724
▁sachdev	-12.9724
▁sambalpuri	-12.9724
▁santander	-12.9724
▁sculpture	-12.9724
▁srpska	-12.9724
▁trafford	-12.9724
▁wolves	-12.9724
Algeria	-12.9724
Horsepower	-12.9724
Margaret	-12.9724
_10960039_	-12.9724
_12451376_	-12.9724
_14562722_	-12.9724
_15988037_	-12.9724
_2597876_	-12.9724
_27218002_	-12.9724
athieu	-12.9724
averaging	-12.9724
carnival	-12.9724
continu	-12.9724
executed	-12.9724
hampden	-12.9724
kenneth	-12.9724
magnus	-12.9724
midfielder	-12.9724
openhagen	-12.9724
permitted	-12.9724
stirling	-12.9724
structural	-12.9724
tuckey	-12.9724
ukraine	-12.9724
uninterrupted	-12.9724
▁"2–3"	-12.9724
▁Doctor	-12.9724
▁Doyle	-12.9724
▁Ferrer	-12.9724
▁Fisher	-12.9724
▁Fourth	-12.9724
▁Indoor	-12.9724
▁Mintage	-12.9724
▁Palmer	-12.9724
▁bailey	-12.9724
▁competing	-12.9724
▁duncan	-12.9724
▁sanction	-12.9724
Congress	-12.9724
Deutsch	-12.9724
Moscow	-12.9724
Stirling	-12.9724
_220789	-12.9724
_2417340_	-12.9724
_2701851_	-12.9724
aginaw	-12.9724
crusade	-12.9724
employer	-12.9724
handicap	-12.9724
jewish	-12.9724
lagojevich	-12.9724
salaries	-12.9724
[...]
